{
  "version": "1.0",
  "truncation": null,
  "padding": null,
  "added_tokens": [
    {
      "id": 0,
      "content": "[UNK]",
      "single_word": false,
      "lstrip": false,
      "rstrip": false,
      "normalized": false,
      "special": true
    },
    {
      "id": 1,
      "content": "[CLS]",
      "single_word": false,
      "lstrip": false,
      "rstrip": false,
      "normalized": false,
      "special": true
    },
    {
      "id": 2,
      "content": "[SEP]",
      "single_word": false,
      "lstrip": false,
      "rstrip": false,
      "normalized": false,
      "special": true
    },
    {
      "id": 3,
      "content": "[PAD]",
      "single_word": false,
      "lstrip": false,
      "rstrip": false,
      "normalized": false,
      "special": true
    },
    {
      "id": 4,
      "content": "[MASK]",
      "single_word": false,
      "lstrip": false,
      "rstrip": false,
      "normalized": false,
      "special": true
    }
  ],
  "normalizer": null,
  "pre_tokenizer": {
    "type": "Whitespace"
  },
  "post_processor": null,
  "decoder": null,
  "model": {
    "type": "BPE",
    "dropout": null,
    "unk_token": "[UNK]",
    "continuing_subword_prefix": "##",
    "end_of_word_suffix": null,
    "fuse_unk": false,
    "vocab": {
      "[UNK]": 0,
      "[CLS]": 1,
      "[SEP]": 2,
      "[PAD]": 3,
      "[MASK]": 4,
      "!": 5,
      "\"": 6,
      "#": 7,
      "$": 8,
      "%": 9,
      "&": 10,
      "'": 11,
      "(": 12,
      ")": 13,
      "*": 14,
      "+": 15,
      ",": 16,
      "-": 17,
      ".": 18,
      "/": 19,
      "0": 20,
      "1": 21,
      "2": 22,
      "3": 23,
      "4": 24,
      "5": 25,
      "6": 26,
      "7": 27,
      "8": 28,
      "9": 29,
      ":": 30,
      ";": 31,
      "<": 32,
      "=": 33,
      ">": 34,
      "?": 35,
      "@": 36,
      "A": 37,
      "B": 38,
      "C": 39,
      "D": 40,
      "E": 41,
      "F": 42,
      "G": 43,
      "H": 44,
      "I": 45,
      "J": 46,
      "K": 47,
      "L": 48,
      "M": 49,
      "N": 50,
      "O": 51,
      "P": 52,
      "Q": 53,
      "R": 54,
      "S": 55,
      "T": 56,
      "U": 57,
      "V": 58,
      "W": 59,
      "X": 60,
      "Y": 61,
      "Z": 62,
      "[": 63,
      "\\": 64,
      "]": 65,
      "^": 66,
      "_": 67,
      "`": 68,
      "a": 69,
      "b": 70,
      "c": 71,
      "d": 72,
      "e": 73,
      "f": 74,
      "g": 75,
      "h": 76,
      "i": 77,
      "j": 78,
      "k": 79,
      "l": 80,
      "m": 81,
      "n": 82,
      "o": 83,
      "p": 84,
      "q": 85,
      "r": 86,
      "s": 87,
      "t": 88,
      "u": 89,
      "v": 90,
      "w": 91,
      "x": 92,
      "y": 93,
      "z": 94,
      "{": 95,
      "|": 96,
      "}": 97,
      "~": 98,
      "": 99,
      "": 100,
      "": 101,
      "": 102,
      "": 103,
      "": 104,
      "¡": 105,
      "¢": 106,
      "£": 107,
      "¤": 108,
      "¥": 109,
      "§": 110,
      "©": 111,
      "«": 112,
      "­": 113,
      "®": 114,
      "¯": 115,
      "°": 116,
      "±": 117,
      "²": 118,
      "³": 119,
      "´": 120,
      "µ": 121,
      "¶": 122,
      "·": 123,
      "¹": 124,
      "º": 125,
      "»": 126,
      "¼": 127,
      "½": 128,
      "¾": 129,
      "¿": 130,
      "À": 131,
      "Á": 132,
      "Â": 133,
      "Ä": 134,
      "Å": 135,
      "Æ": 136,
      "Ç": 137,
      "È": 138,
      "É": 139,
      "Ê": 140,
      "Ë": 141,
      "Ì": 142,
      "Í": 143,
      "Î": 144,
      "Ï": 145,
      "Ð": 146,
      "Ñ": 147,
      "Ò": 148,
      "Ó": 149,
      "Ô": 150,
      "Õ": 151,
      "Ö": 152,
      "×": 153,
      "Ø": 154,
      "Ù": 155,
      "Ú": 156,
      "Ü": 157,
      "Ý": 158,
      "Þ": 159,
      "ß": 160,
      "à": 161,
      "á": 162,
      "â": 163,
      "ã": 164,
      "ä": 165,
      "å": 166,
      "æ": 167,
      "ç": 168,
      "è": 169,
      "é": 170,
      "ê": 171,
      "ë": 172,
      "ì": 173,
      "í": 174,
      "î": 175,
      "ï": 176,
      "ð": 177,
      "ñ": 178,
      "ò": 179,
      "ó": 180,
      "ô": 181,
      "õ": 182,
      "ö": 183,
      "÷": 184,
      "ø": 185,
      "ù": 186,
      "ú": 187,
      "û": 188,
      "ü": 189,
      "ý": 190,
      "þ": 191,
      "ÿ": 192,
      "Ā": 193,
      "ā": 194,
      "Ă": 195,
      "ă": 196,
      "ą": 197,
      "Ć": 198,
      "ć": 199,
      "ĉ": 200,
      "Ċ": 201,
      "ċ": 202,
      "Č": 203,
      "č": 204,
      "Ď": 205,
      "ď": 206,
      "Đ": 207,
      "đ": 208,
      "Ē": 209,
      "ē": 210,
      "Ĕ": 211,
      "ĕ": 212,
      "Ė": 213,
      "ė": 214,
      "ę": 215,
      "Ě": 216,
      "ě": 217,
      "ğ": 218,
      "Ġ": 219,
      "ġ": 220,
      "Ģ": 221,
      "ģ": 222,
      "Ĥ": 223,
      "Ħ": 224,
      "ħ": 225,
      "ĩ": 226,
      "Ī": 227,
      "ī": 228,
      "ĭ": 229,
      "į": 230,
      "İ": 231,
      "ı": 232,
      "ĵ": 233,
      "Ķ": 234,
      "ķ": 235,
      "ĸ": 236,
      "ĺ": 237,
      "ļ": 238,
      "Ľ": 239,
      "ľ": 240,
      "Ł": 241,
      "ł": 242,
      "ń": 243,
      "ņ": 244,
      "ň": 245,
      "Ŋ": 246,
      "ŋ": 247,
      "Ō": 248,
      "ō": 249,
      "ŏ": 250,
      "ő": 251,
      "Œ": 252,
      "œ": 253,
      "Ŗ": 254,
      "ŗ": 255,
      "Ř": 256,
      "ř": 257,
      "Ś": 258,
      "ś": 259,
      "Ŝ": 260,
      "Ş": 261,
      "ş": 262,
      "Š": 263,
      "š": 264,
      "Ţ": 265,
      "ţ": 266,
      "ť": 267,
      "ŧ": 268,
      "ũ": 269,
      "Ū": 270,
      "ū": 271,
      "ŭ": 272,
      "ů": 273,
      "ű": 274,
      "ų": 275,
      "ŵ": 276,
      "ŷ": 277,
      "Ź": 278,
      "ź": 279,
      "Ż": 280,
      "ż": 281,
      "Ž": 282,
      "ž": 283,
      "ſ": 284,
      "ƀ": 285,
      "Ɔ": 286,
      "Ƈ": 287,
      "ƈ": 288,
      "Ɖ": 289,
      "ƍ": 290,
      "Ǝ": 291,
      "Ə": 292,
      "Ɛ": 293,
      "ƒ": 294,
      "Ɣ": 295,
      "ƙ": 296,
      "ƛ": 297,
      "ơ": 298,
      "Ƣ": 299,
      "ƥ": 300,
      "ƭ": 301,
      "ư": 302,
      "Ʋ": 303,
      "ƿ": 304,
      "ǀ": 305,
      "ǁ": 306,
      "ǂ": 307,
      "ǃ": 308,
      "ǎ": 309,
      "ǐ": 310,
      "Ǒ": 311,
      "ǒ": 312,
      "ǔ": 313,
      "ǚ": 314,
      "ǜ": 315,
      "ǝ": 316,
      "Ǣ": 317,
      "ǣ": 318,
      "Ǧ": 319,
      "ǧ": 320,
      "Ǫ": 321,
      "ǫ": 322,
      "ǭ": 323,
      "ǰ": 324,
      "ǵ": 325,
      "Ƿ": 326,
      "Ǹ": 327,
      "ǹ": 328,
      "ǽ": 329,
      "Ș": 330,
      "ș": 331,
      "Ț": 332,
      "ț": 333,
      "Ȝ": 334,
      "ȝ": 335,
      "ȟ": 336,
      "ȯ": 337,
      "ȳ": 338,
      "ȷ": 339,
      "ȼ": 340,
      "Ɉ": 341,
      "ɐ": 342,
      "ɑ": 343,
      "ɒ": 344,
      "ɓ": 345,
      "ɔ": 346,
      "ɕ": 347,
      "ɖ": 348,
      "ɗ": 349,
      "ɘ": 350,
      "ə": 351,
      "ɚ": 352,
      "ɛ": 353,
      "ɜ": 354,
      "ɞ": 355,
      "ɟ": 356,
      "ɠ": 357,
      "ɡ": 358,
      "ɢ": 359,
      "ɣ": 360,
      "ɤ": 361,
      "ɥ": 362,
      "ɦ": 363,
      "ɧ": 364,
      "ɨ": 365,
      "ɪ": 366,
      "ɫ": 367,
      "ɬ": 368,
      "ɭ": 369,
      "ɮ": 370,
      "ɯ": 371,
      "ɰ": 372,
      "ɱ": 373,
      "ɲ": 374,
      "ɳ": 375,
      "ɴ": 376,
      "ɵ": 377,
      "ɶ": 378,
      "ɷ": 379,
      "ɸ": 380,
      "ɹ": 381,
      "ɺ": 382,
      "ɻ": 383,
      "ɽ": 384,
      "ɾ": 385,
      "ʀ": 386,
      "ʁ": 387,
      "ʂ": 388,
      "ʃ": 389,
      "ʄ": 390,
      "ʇ": 391,
      "ʈ": 392,
      "ʉ": 393,
      "ʊ": 394,
      "ʋ": 395,
      "ʌ": 396,
      "ʍ": 397,
      "ʎ": 398,
      "ʏ": 399,
      "ʐ": 400,
      "ʑ": 401,
      "ʒ": 402,
      "ʔ": 403,
      "ʕ": 404,
      "ʖ": 405,
      "ʗ": 406,
      "ʘ": 407,
      "ʙ": 408,
      "ʛ": 409,
      "ʝ": 410,
      "ʟ": 411,
      "ʠ": 412,
      "ʡ": 413,
      "ʢ": 414,
      "ʰ": 415,
      "ʱ": 416,
      "ʲ": 417,
      "ʳ": 418,
      "ʷ": 419,
      "ʹ": 420,
      "ʻ": 421,
      "ʼ": 422,
      "ʽ": 423,
      "ʾ": 424,
      "ʿ": 425,
      "ˀ": 426,
      "ˁ": 427,
      "ˆ": 428,
      "ˇ": 429,
      "ˈ": 430,
      "ˌ": 431,
      "ː": 432,
      "ˑ": 433,
      "˔": 434,
      "˕": 435,
      "˖": 436,
      "˘": 437,
      "˚": 438,
      "˜": 439,
      "˞": 440,
      "ˠ": 441,
      "ˢ": 442,
      "ˣ": 443,
      "ˤ": 444,
      "˥": 445,
      "˦": 446,
      "˧": 447,
      "˨": 448,
      "˩": 449,
      "̀": 450,
      "́": 451,
      "̂": 452,
      "̃": 453,
      "̄": 454,
      "̆": 455,
      "̇": 456,
      "̈": 457,
      "̊": 458,
      "̋": 459,
      "̌": 460,
      "̍": 461,
      "̏": 462,
      "̐": 463,
      "̑": 464,
      "̖": 465,
      "̗": 466,
      "̚": 467,
      "̝": 468,
      "̞": 469,
      "̟": 470,
      "̠": 471,
      "̣": 472,
      "̤": 473,
      "̥": 474,
      "̧": 475,
      "̩": 476,
      "̪": 477,
      "̬": 478,
      "̮": 479,
      "̯": 480,
      "̰": 481,
      "̱": 482,
      "̲": 483,
      "̳": 484,
      "̺": 485,
      "̽": 486,
      "͌": 487,
      "͍": 488,
      "͘": 489,
      "͜": 490,
      "͡": 491,
      "΄": 492,
      "Ά": 493,
      "Έ": 494,
      "Ή": 495,
      "Ί": 496,
      "Ό": 497,
      "Ύ": 498,
      "ΐ": 499,
      "Α": 500,
      "Β": 501,
      "Γ": 502,
      "Δ": 503,
      "Ε": 504,
      "Ζ": 505,
      "Η": 506,
      "Θ": 507,
      "Ι": 508,
      "Κ": 509,
      "Λ": 510,
      "Μ": 511,
      "Ν": 512,
      "Ξ": 513,
      "Ο": 514,
      "Π": 515,
      "Ρ": 516,
      "Σ": 517,
      "Τ": 518,
      "Υ": 519,
      "Φ": 520,
      "Χ": 521,
      "Ψ": 522,
      "Ω": 523,
      "ά": 524,
      "έ": 525,
      "ή": 526,
      "ί": 527,
      "α": 528,
      "β": 529,
      "γ": 530,
      "δ": 531,
      "ε": 532,
      "ζ": 533,
      "η": 534,
      "θ": 535,
      "ι": 536,
      "κ": 537,
      "λ": 538,
      "μ": 539,
      "ν": 540,
      "ξ": 541,
      "ο": 542,
      "π": 543,
      "ρ": 544,
      "ς": 545,
      "σ": 546,
      "τ": 547,
      "υ": 548,
      "φ": 549,
      "χ": 550,
      "ψ": 551,
      "ω": 552,
      "ϊ": 553,
      "ό": 554,
      "ύ": 555,
      "ώ": 556,
      "ϑ": 557,
      "ϕ": 558,
      "ϝ": 559,
      "ϟ": 560,
      "ϵ": 561,
      "Ђ": 562,
      "Є": 563,
      "І": 564,
      "Ї": 565,
      "Ј": 566,
      "Љ": 567,
      "Ћ": 568,
      "А": 569,
      "Б": 570,
      "В": 571,
      "Г": 572,
      "Д": 573,
      "Е": 574,
      "Ж": 575,
      "З": 576,
      "И": 577,
      "Й": 578,
      "К": 579,
      "Л": 580,
      "М": 581,
      "Н": 582,
      "О": 583,
      "П": 584,
      "Р": 585,
      "С": 586,
      "Т": 587,
      "У": 588,
      "Ф": 589,
      "Х": 590,
      "Ц": 591,
      "Ч": 592,
      "Ш": 593,
      "Щ": 594,
      "Ъ": 595,
      "Ы": 596,
      "Ь": 597,
      "Э": 598,
      "Ю": 599,
      "Я": 600,
      "а": 601,
      "б": 602,
      "в": 603,
      "г": 604,
      "д": 605,
      "е": 606,
      "ж": 607,
      "з": 608,
      "и": 609,
      "й": 610,
      "к": 611,
      "л": 612,
      "м": 613,
      "н": 614,
      "о": 615,
      "п": 616,
      "р": 617,
      "с": 618,
      "т": 619,
      "у": 620,
      "ф": 621,
      "х": 622,
      "ц": 623,
      "ч": 624,
      "ш": 625,
      "щ": 626,
      "ъ": 627,
      "ы": 628,
      "ь": 629,
      "э": 630,
      "ю": 631,
      "я": 632,
      "ё": 633,
      "ђ": 634,
      "є": 635,
      "і": 636,
      "ї": 637,
      "ј": 638,
      "љ": 639,
      "њ": 640,
      "ћ": 641,
      "ѝ": 642,
      "ў": 643,
      "Ѡ": 644,
      "ѡ": 645,
      "Ѣ": 646,
      "ѣ": 647,
      "ѥ": 648,
      "ѧ": 649,
      "Ѯ": 650,
      "ѹ": 651,
      "҆": 652,
      "ғ": 653,
      "қ": 654,
      "ү": 655,
      "ҳ": 656,
      "ҷ": 657,
      "ӣ": 658,
      "Ө": 659,
      "ө": 660,
      "ӯ": 661,
      "Ӷ": 662,
      "ӷ": 663,
      "Ա": 664,
      "Բ": 665,
      "Գ": 666,
      "Դ": 667,
      "Ե": 668,
      "Զ": 669,
      "Է": 670,
      "Ը": 671,
      "Թ": 672,
      "Ժ": 673,
      "Ի": 674,
      "Լ": 675,
      "Խ": 676,
      "Կ": 677,
      "Հ": 678,
      "Ձ": 679,
      "Ղ": 680,
      "Ճ": 681,
      "Մ": 682,
      "Յ": 683,
      "Ն": 684,
      "Շ": 685,
      "Ո": 686,
      "Պ": 687,
      "Ջ": 688,
      "Ռ": 689,
      "Ս": 690,
      "Վ": 691,
      "Տ": 692,
      "Փ": 693,
      "Ք": 694,
      "Օ": 695,
      "ա": 696,
      "բ": 697,
      "գ": 698,
      "դ": 699,
      "ե": 700,
      "զ": 701,
      "է": 702,
      "ը": 703,
      "թ": 704,
      "ժ": 705,
      "ի": 706,
      "լ": 707,
      "խ": 708,
      "ծ": 709,
      "կ": 710,
      "հ": 711,
      "ձ": 712,
      "ղ": 713,
      "ճ": 714,
      "մ": 715,
      "յ": 716,
      "ն": 717,
      "շ": 718,
      "ո": 719,
      "չ": 720,
      "պ": 721,
      "ջ": 722,
      "ռ": 723,
      "ս": 724,
      "վ": 725,
      "տ": 726,
      "ր": 727,
      "ց": 728,
      "ւ": 729,
      "փ": 730,
      "ք": 731,
      "օ": 732,
      "և": 733,
      "֤": 734,
      "֫": 735,
      "ְ": 736,
      "ֱ": 737,
      "ֲ": 738,
      "ֳ": 739,
      "ִ": 740,
      "ֵ": 741,
      "ֶ": 742,
      "ַ": 743,
      "ָ": 744,
      "ֹ": 745,
      "ֻ": 746,
      "ּ": 747,
      "ֽ": 748,
      "ֿ": 749,
      "ׁ": 750,
      "ׂ": 751,
      "א": 752,
      "ב": 753,
      "ג": 754,
      "ד": 755,
      "ה": 756,
      "ו": 757,
      "ז": 758,
      "ח": 759,
      "ט": 760,
      "י": 761,
      "ך": 762,
      "כ": 763,
      "ל": 764,
      "ם": 765,
      "מ": 766,
      "ן": 767,
      "נ": 768,
      "ס": 769,
      "ע": 770,
      "ף": 771,
      "פ": 772,
      "ץ": 773,
      "צ": 774,
      "ק": 775,
      "ר": 776,
      "ש": 777,
      "ת": 778,
      "ױ": 779,
      "׳": 780,
      "،": 781,
      "ء": 782,
      "آ": 783,
      "أ": 784,
      "ؤ": 785,
      "إ": 786,
      "ئ": 787,
      "ا": 788,
      "ب": 789,
      "ة": 790,
      "ت": 791,
      "ث": 792,
      "ج": 793,
      "ح": 794,
      "خ": 795,
      "د": 796,
      "ذ": 797,
      "ر": 798,
      "ز": 799,
      "س": 800,
      "ش": 801,
      "ص": 802,
      "ض": 803,
      "ط": 804,
      "ظ": 805,
      "ع": 806,
      "غ": 807,
      "ـ": 808,
      "ف": 809,
      "ق": 810,
      "ك": 811,
      "ل": 812,
      "م": 813,
      "ن": 814,
      "ه": 815,
      "و": 816,
      "ى": 817,
      "ي": 818,
      "ً": 819,
      "ٌ": 820,
      "ٍ": 821,
      "َ": 822,
      "ُ": 823,
      "ِ": 824,
      "ّ": 825,
      "ْ": 826,
      "ٔ": 827,
      "١": 828,
      "٧": 829,
      "ٰ": 830,
      "پ": 831,
      "چ": 832,
      "ڈ": 833,
      "ڠ": 834,
      "ک": 835,
      "ڬ": 836,
      "گ": 837,
      "ں": 838,
      "ھ": 839,
      "ہ": 840,
      "ی": 841,
      "ۍ": 842,
      "ے": 843,
      "ە": 844,
      "ܐ": 845,
      "ܒ": 846,
      "ܔ": 847,
      "ܕ": 848,
      "ܗ": 849,
      "ܘ": 850,
      "ܙ": 851,
      "ܚ": 852,
      "ܛ": 853,
      "ܝ": 854,
      "ܠ": 855,
      "ܡ": 856,
      "ܢ": 857,
      "ܣ": 858,
      "ܥ": 859,
      "ܦ": 860,
      "ܪ": 861,
      "ܬ": 862,
      "ܲ": 863,
      "ܵ": 864,
      "ܼ": 865,
      "݂": 866,
      "ँ": 867,
      "ं": 868,
      "ः": 869,
      "अ": 870,
      "आ": 871,
      "इ": 872,
      "ई": 873,
      "उ": 874,
      "ऋ": 875,
      "ए": 876,
      "ऐ": 877,
      "औ": 878,
      "क": 879,
      "ख": 880,
      "ग": 881,
      "घ": 882,
      "ङ": 883,
      "च": 884,
      "छ": 885,
      "ज": 886,
      "ञ": 887,
      "ट": 888,
      "ठ": 889,
      "ड": 890,
      "ण": 891,
      "त": 892,
      "थ": 893,
      "द": 894,
      "ध": 895,
      "न": 896,
      "प": 897,
      "फ": 898,
      "ब": 899,
      "भ": 900,
      "म": 901,
      "य": 902,
      "र": 903,
      "ल": 904,
      "व": 905,
      "श": 906,
      "ष": 907,
      "स": 908,
      "ह": 909,
      "़": 910,
      "ऽ": 911,
      "ा": 912,
      "ि": 913,
      "ी": 914,
      "ु": 915,
      "ू": 916,
      "ृ": 917,
      "ॆ": 918,
      "े": 919,
      "ै": 920,
      "ॉ": 921,
      "ॊ": 922,
      "ो": 923,
      "ौ": 924,
      "्": 925,
      "ॐ": 926,
      "।": 927,
      "॥": 928,
      "१": 929,
      "२": 930,
      "३": 931,
      "ং": 932,
      "অ": 933,
      "আ": 934,
      "ই": 935,
      "এ": 936,
      "ক": 937,
      "খ": 938,
      "গ": 939,
      "ঙ": 940,
      "চ": 941,
      "জ": 942,
      "ট": 943,
      "ড": 944,
      "ঢ": 945,
      "ণ": 946,
      "ত": 947,
      "থ": 948,
      "দ": 949,
      "ন": 950,
      "প": 951,
      "ব": 952,
      "ভ": 953,
      "ম": 954,
      "য": 955,
      "র": 956,
      "ল": 957,
      "শ": 958,
      "ষ": 959,
      "স": 960,
      "হ": 961,
      "়": 962,
      "া": 963,
      "ি": 964,
      "ী": 965,
      "ু": 966,
      "ূ": 967,
      "ে": 968,
      "ৈ": 969,
      "ো": 970,
      "্": 971,
      "ৰ": 972,
      "ਂ": 973,
      "ਅ": 974,
      "ਉ": 975,
      "ਖ": 976,
      "ਘ": 977,
      "ਜ": 978,
      "ਝ": 979,
      "ਦ": 980,
      "ਲ": 981,
      "ਵ": 982,
      "ਸ": 983,
      "ਹ": 984,
      "਼": 985,
      "ਾ": 986,
      "ਿ": 987,
      "ੁ": 988,
      "ੇ": 989,
      "ੰ": 990,
      "ੱ": 991,
      "ખ": 992,
      "ફ": 993,
      "બ": 994,
      "ર": 995,
      "લ": 996,
      "સ": 997,
      "ા": 998,
      "ો": 999,
      "ପ": 1000,
      "ର": 1001,
      "ୀ": 1002,
      "ୁ": 1003,
      "ஃ": 1004,
      "அ": 1005,
      "ஆ": 1006,
      "இ": 1007,
      "ஈ": 1008,
      "எ": 1009,
      "ஒ": 1010,
      "க": 1011,
      "ங": 1012,
      "ச": 1013,
      "ட": 1014,
      "ண": 1015,
      "த": 1016,
      "ந": 1017,
      "ன": 1018,
      "ப": 1019,
      "ம": 1020,
      "ய": 1021,
      "ர": 1022,
      "ற": 1023,
      "ல": 1024,
      "ள": 1025,
      "ழ": 1026,
      "வ": 1027,
      "ஸ": 1028,
      "ா": 1029,
      "ி": 1030,
      "ீ": 1031,
      "ு": 1032,
      "ூ": 1033,
      "ெ": 1034,
      "ே": 1035,
      "ை": 1036,
      "ோ": 1037,
      "்": 1038,
      "ం": 1039,
      "క": 1040,
      "ఖ": 1041,
      "గ": 1042,
      "జ": 1043,
      "ట": 1044,
      "ఠ": 1045,
      "డ": 1046,
      "త": 1047,
      "థ": 1048,
      "ద": 1049,
      "న": 1050,
      "ప": 1051,
      "బ": 1052,
      "భ": 1053,
      "మ": 1054,
      "య": 1055,
      "ర": 1056,
      "ల": 1057,
      "వ": 1058,
      "ష": 1059,
      "స": 1060,
      "ా": 1061,
      "ి": 1062,
      "ీ": 1063,
      "ు": 1064,
      "ై": 1065,
      "ో": 1066,
      "్": 1067,
      "ಂ": 1068,
      "ಃ": 1069,
      "ಕ": 1070,
      "ಖ": 1071,
      "ಗ": 1072,
      "ಚ": 1073,
      "ಟ": 1074,
      "ಠ": 1075,
      "ಡ": 1076,
      "ತ": 1077,
      "ದ": 1078,
      "ನ": 1079,
      "ಪ": 1080,
      "ಬ": 1081,
      "ಭ": 1082,
      "ಮ": 1083,
      "ಯ": 1084,
      "ರ": 1085,
      "ಱ": 1086,
      "ಲ": 1087,
      "ಳ": 1088,
      "ವ": 1089,
      "ಶ": 1090,
      "ಸ": 1091,
      "ಹ": 1092,
      "ಾ": 1093,
      "ಿ": 1094,
      "ು": 1095,
      "ೇ": 1096,
      "ೋ": 1097,
      "್": 1098,
      "ೞ": 1099,
      "അ": 1100,
      "ങ": 1101,
      "ദ": 1102,
      "ന": 1103,
      "പ": 1104,
      "മ": 1105,
      "യ": 1106,
      "ര": 1107,
      "ള": 1108,
      "വ": 1109,
      "ശ": 1110,
      "സ": 1111,
      "ഹ": 1112,
      "ാ": 1113,
      "ി": 1114,
      "്": 1115,
      "අ": 1116,
      "එ": 1117,
      "ක": 1118,
      "ග": 1119,
      "ජ": 1120,
      "ත": 1121,
      "ධ": 1122,
      "න": 1123,
      "ප": 1124,
      "ම": 1125,
      "ය": 1126,
      "ර": 1127,
      "ල": 1128,
      "ව": 1129,
      "ශ": 1130,
      "හ": 1131,
      "ළ": 1132,
      "්": 1133,
      "ා": 1134,
      "ැ": 1135,
      "ි": 1136,
      "ු": 1137,
      "ේ": 1138,
      "ෝ": 1139,
      "ก": 1140,
      "ข": 1141,
      "ค": 1142,
      "ฆ": 1143,
      "ง": 1144,
      "จ": 1145,
      "ฉ": 1146,
      "ช": 1147,
      "ซ": 1148,
      "ญ": 1149,
      "ฎ": 1150,
      "ฏ": 1151,
      "ฐ": 1152,
      "ฑ": 1153,
      "ณ": 1154,
      "ด": 1155,
      "ต": 1156,
      "ถ": 1157,
      "ท": 1158,
      "ธ": 1159,
      "น": 1160,
      "บ": 1161,
      "ป": 1162,
      "ผ": 1163,
      "ฝ": 1164,
      "พ": 1165,
      "ฟ": 1166,
      "ภ": 1167,
      "ม": 1168,
      "ย": 1169,
      "ร": 1170,
      "ฤ": 1171,
      "ล": 1172,
      "ว": 1173,
      "ศ": 1174,
      "ษ": 1175,
      "ส": 1176,
      "ห": 1177,
      "ฬ": 1178,
      "อ": 1179,
      "ฮ": 1180,
      "ะ": 1181,
      "ั": 1182,
      "า": 1183,
      "ำ": 1184,
      "ิ": 1185,
      "ี": 1186,
      "ึ": 1187,
      "ื": 1188,
      "ุ": 1189,
      "ู": 1190,
      "฿": 1191,
      "เ": 1192,
      "แ": 1193,
      "โ": 1194,
      "ใ": 1195,
      "ไ": 1196,
      "็": 1197,
      "่": 1198,
      "้": 1199,
      "๊": 1200,
      "์": 1201,
      "་": 1202,
      "༌": 1203,
      "།": 1204,
      "ཀ": 1205,
      "ཁ": 1206,
      "ག": 1207,
      "ང": 1208,
      "ཆ": 1209,
      "ཇ": 1210,
      "ཐ": 1211,
      "ད": 1212,
      "ན": 1213,
      "པ": 1214,
      "བ": 1215,
      "མ": 1216,
      "ཙ": 1217,
      "ཚ": 1218,
      "ཛ": 1219,
      "འ": 1220,
      "ཡ": 1221,
      "ར": 1222,
      "ལ": 1223,
      "ས": 1224,
      "ཧ": 1225,
      "ི": 1226,
      "ུ": 1227,
      "ེ": 1228,
      "ོ": 1229,
      "ྟ": 1230,
      "ྡ": 1231,
      "ྣ": 1232,
      "ྤ": 1233,
      "ྥ": 1234,
      "ྱ": 1235,
      "ྲ": 1236,
      "က": 1237,
      "ဂ": 1238,
      "င": 1239,
      "စ": 1240,
      "ဆ": 1241,
      "ဇ": 1242,
      "တ": 1243,
      "န": 1244,
      "ပ": 1245,
      "ဗ": 1246,
      "ဘ": 1247,
      "မ": 1248,
      "ယ": 1249,
      "ရ": 1250,
      "လ": 1251,
      "ဝ": 1252,
      "ဟ": 1253,
      "အ": 1254,
      "ာ": 1255,
      "ိ": 1256,
      "ီ": 1257,
      "ု": 1258,
      "ူ": 1259,
      "ဲ": 1260,
      "း": 1261,
      "္": 1262,
      "်": 1263,
      "ျ": 1264,
      "ြ": 1265,
      "ွ": 1266,
      "ှ": 1267,
      "၁": 1268,
      "၂": 1269,
      "၇": 1270,
      "၈": 1271,
      "Ⴀ": 1272,
      "Ⴂ": 1273,
      "Ⴃ": 1274,
      "Ⴈ": 1275,
      "Ⴌ": 1276,
      "Ⴕ": 1277,
      "Ⴟ": 1278,
      "ა": 1279,
      "ბ": 1280,
      "გ": 1281,
      "დ": 1282,
      "ე": 1283,
      "ვ": 1284,
      "ზ": 1285,
      "თ": 1286,
      "ი": 1287,
      "კ": 1288,
      "ლ": 1289,
      "მ": 1290,
      "ნ": 1291,
      "ო": 1292,
      "პ": 1293,
      "ჟ": 1294,
      "რ": 1295,
      "ს": 1296,
      "ტ": 1297,
      "უ": 1298,
      "ფ": 1299,
      "ქ": 1300,
      "ღ": 1301,
      "ყ": 1302,
      "შ": 1303,
      "ჩ": 1304,
      "ც": 1305,
      "ძ": 1306,
      "წ": 1307,
      "ჭ": 1308,
      "ხ": 1309,
      "ჯ": 1310,
      "ჰ": 1311,
      "ჱ": 1312,
      "ჲ": 1313,
      "ჳ": 1314,
      "ჴ": 1315,
      "ჵ": 1316,
      "ჶ": 1317,
      "ჷ": 1318,
      "ჸ": 1319,
      "ჹ": 1320,
      "ჺ": 1321,
      "჻": 1322,
      "ሀ": 1323,
      "ለ": 1324,
      "ሐ": 1325,
      "ሓ": 1326,
      "ሕ": 1327,
      "መ": 1328,
      "ማ": 1329,
      "ሥ": 1330,
      "ረ": 1331,
      "ር": 1332,
      "ሰ": 1333,
      "ስ": 1334,
      "ቆ": 1335,
      "ቈ": 1336,
      "በ": 1337,
      "ብ": 1338,
      "ቲ": 1339,
      "ታ": 1340,
      "ት": 1341,
      "ነ": 1342,
      "ና": 1343,
      "ን": 1344,
      "ኖ": 1345,
      "አ": 1346,
      "ኢ": 1347,
      "እ": 1348,
      "ከ": 1349,
      "ኲ": 1350,
      "ዕ": 1351,
      "ዘ": 1352,
      "ዛ": 1353,
      "የ": 1354,
      "ያ": 1355,
      "ይ": 1356,
      "ዮ": 1357,
      "ደ": 1358,
      "ድ": 1359,
      "ጅ": 1360,
      "ገ": 1361,
      "ጉ": 1362,
      "ጵ": 1363,
      "ፈ": 1364,
      "ፍ": 1365,
      "፡": 1366,
      "Ꭰ": 1367,
      "Ꭳ": 1368,
      "Ꭶ": 1369,
      "Ꭸ": 1370,
      "Ꭹ": 1371,
      "Ꮀ": 1372,
      "Ꮃ": 1373,
      "Ꮉ": 1374,
      "Ꮝ": 1375,
      "Ꮿ": 1376,
      "Ᏹ": 1377,
      "ᐊ": 1378,
      "ᑲ": 1379,
      "ᒡ": 1380,
      "ᓘ": 1381,
      "ᚢ": 1382,
      "ᚣ": 1383,
      "ᚦ": 1384,
      "ᚨ": 1385,
      "ᚩ": 1386,
      "ᚬ": 1387,
      "ᚱ": 1388,
      "ᚷ": 1389,
      "ᚹ": 1390,
      "ᚺ": 1391,
      "ᚻ": 1392,
      "ᚼ": 1393,
      "ᚾ": 1394,
      "ᛁ": 1395,
      "ᛃ": 1396,
      "ᛄ": 1397,
      "ᛇ": 1398,
      "ᛋ": 1399,
      "ᛏ": 1400,
      "ᛒ": 1401,
      "ᛗ": 1402,
      "ᛚ": 1403,
      "ᛝ": 1404,
      "ᛞ": 1405,
      "ᛟ": 1406,
      "ᛠ": 1407,
      "ក": 1408,
      "ខ": 1409,
      "គ": 1410,
      "ង": 1411,
      "ច": 1412,
      "ឆ": 1413,
      "ជ": 1414,
      "ញ": 1415,
      "ដ": 1416,
      "ឋ": 1417,
      "ណ": 1418,
      "ត": 1419,
      "ថ": 1420,
      "ទ": 1421,
      "ធ": 1422,
      "ន": 1423,
      "ប": 1424,
      "ព": 1425,
      "ភ": 1426,
      "ម": 1427,
      "យ": 1428,
      "រ": 1429,
      "ល": 1430,
      "វ": 1431,
      "ស": 1432,
      "ហ": 1433,
      "អ": 1434,
      "ឥ": 1435,
      "ឪ": 1436,
      "ឫ": 1437,
      "ឯ": 1438,
      "឵": 1439,
      "ា": 1440,
      "ិ": 1441,
      "ី": 1442,
      "ឹ": 1443,
      "ឺ": 1444,
      "ុ": 1445,
      "ូ": 1446,
      "ួ": 1447,
      "ៀ": 1448,
      "េ": 1449,
      "ែ": 1450,
      "ៃ": 1451,
      "ោ": 1452,
      "ៅ": 1453,
      "ំ": 1454,
      "ះ": 1455,
      "ៈ": 1456,
      "៉": 1457,
      "់": 1458,
      "្": 1459,
      "ᠠ": 1460,
      "ᠣ": 1461,
      "ᠨ": 1462,
      "ᠪ": 1463,
      "ᠮ": 1464,
      "ᠯ": 1465,
      "ᠰ": 1466,
      "ᠴ": 1467,
      "ᠵ": 1468,
      "ᠸ": 1469,
      "ᡝ": 1470,
      "ᡠ": 1471,
      "ᡥ": 1472,
      "ᡨ": 1473,
      "ᡳ": 1474,
      "ᡴ": 1475,
      "ᡵ": 1476,
      "ᴰ": 1477,
      "ᴷ": 1478,
      "ᴺ": 1479,
      "ᵀ": 1480,
      "ᵊ": 1481,
      "ᵑ": 1482,
      "ᵗ": 1483,
      "ᵘ": 1484,
      "ᵝ": 1485,
      "ᵻ": 1486,
      "ᵿ": 1487,
      "ᶑ": 1488,
      "ᶢ": 1489,
      "ᶦ": 1490,
      "ᶴ": 1491,
      "ᶷ": 1492,
      "᷄": 1493,
      "᷅": 1494,
      "᷆": 1495,
      "᷇": 1496,
      "᷈": 1497,
      "᷉": 1498,
      "᷽": 1499,
      "Ḍ": 1500,
      "ḍ": 1501,
      "Ḏ": 1502,
      "ḏ": 1503,
      "ḑ": 1504,
      "ḕ": 1505,
      "ḗ": 1506,
      "Ḣ": 1507,
      "Ḥ": 1508,
      "ḥ": 1509,
      "Ḩ": 1510,
      "ḩ": 1511,
      "Ḫ": 1512,
      "ḫ": 1513,
      "ḭ": 1514,
      "ḱ": 1515,
      "Ḳ": 1516,
      "ḳ": 1517,
      "ḵ": 1518,
      "ḷ": 1519,
      "ḹ": 1520,
      "ḻ": 1521,
      "ḿ": 1522,
      "ṁ": 1523,
      "ṃ": 1524,
      "ṅ": 1525,
      "ṇ": 1526,
      "ṉ": 1527,
      "ṓ": 1528,
      "ṙ": 1529,
      "Ṛ": 1530,
      "ṛ": 1531,
      "Ṝ": 1532,
      "ṝ": 1533,
      "ṟ": 1534,
      "Ṣ": 1535,
      "ṣ": 1536,
      "Ṧ": 1537,
      "Ṫ": 1538,
      "Ṭ": 1539,
      "ṭ": 1540,
      "Ṯ": 1541,
      "ṯ": 1542,
      "ṳ": 1543,
      "ṵ": 1544,
      "Ṽ": 1545,
      "ṽ": 1546,
      "ẃ": 1547,
      "Ẓ": 1548,
      "ẓ": 1549,
      "ẖ": 1550,
      "ạ": 1551,
      "ả": 1552,
      "Ấ": 1553,
      "ấ": 1554,
      "ầ": 1555,
      "Ẩ": 1556,
      "ẩ": 1557,
      "ẫ": 1558,
      "ậ": 1559,
      "ắ": 1560,
      "ằ": 1561,
      "ẵ": 1562,
      "ặ": 1563,
      "ẹ": 1564,
      "ẻ": 1565,
      "ẽ": 1566,
      "ế": 1567,
      "ề": 1568,
      "ể": 1569,
      "ễ": 1570,
      "ệ": 1571,
      "ỉ": 1572,
      "ị": 1573,
      "Ọ": 1574,
      "ọ": 1575,
      "ỏ": 1576,
      "Ố": 1577,
      "ố": 1578,
      "ồ": 1579,
      "ổ": 1580,
      "ỗ": 1581,
      "ộ": 1582,
      "ớ": 1583,
      "ờ": 1584,
      "ở": 1585,
      "ợ": 1586,
      "Ụ": 1587,
      "ụ": 1588,
      "ủ": 1589,
      "Ứ": 1590,
      "ứ": 1591,
      "ừ": 1592,
      "ử": 1593,
      "ữ": 1594,
      "ự": 1595,
      "ỳ": 1596,
      "ỵ": 1597,
      "ỹ": 1598,
      "ἀ": 1599,
      "ἁ": 1600,
      "ἂ": 1601,
      "ἃ": 1602,
      "ἄ": 1603,
      "ἅ": 1604,
      "Ἀ": 1605,
      "Ἁ": 1606,
      "Ἄ": 1607,
      "Ἅ": 1608,
      "ἐ": 1609,
      "ἑ": 1610,
      "ἒ": 1611,
      "ἔ": 1612,
      "ἕ": 1613,
      "Ἐ": 1614,
      "Ἑ": 1615,
      "Ἔ": 1616,
      "Ἕ": 1617,
      "ἠ": 1618,
      "ἡ": 1619,
      "ἢ": 1620,
      "ἤ": 1621,
      "ἥ": 1622,
      "ἦ": 1623,
      "ἧ": 1624,
      "Ἠ": 1625,
      "Ἡ": 1626,
      "ἰ": 1627,
      "ἱ": 1628,
      "ἲ": 1629,
      "ἳ": 1630,
      "ἴ": 1631,
      "ἵ": 1632,
      "ἶ": 1633,
      "ἷ": 1634,
      "Ἰ": 1635,
      "Ἱ": 1636,
      "Ἶ": 1637,
      "ὀ": 1638,
      "ὁ": 1639,
      "ὂ": 1640,
      "ὃ": 1641,
      "ὄ": 1642,
      "ὅ": 1643,
      "Ὁ": 1644,
      "Ὄ": 1645,
      "ὐ": 1646,
      "ὑ": 1647,
      "ὔ": 1648,
      "ὕ": 1649,
      "ὖ": 1650,
      "ὗ": 1651,
      "Ὕ": 1652,
      "ὡ": 1653,
      "ὣ": 1654,
      "ὤ": 1655,
      "ὥ": 1656,
      "ὦ": 1657,
      "Ὠ": 1658,
      "Ὡ": 1659,
      "Ὦ": 1660,
      "ὰ": 1661,
      "ὲ": 1662,
      "ὴ": 1663,
      "ὶ": 1664,
      "ὸ": 1665,
      "ὺ": 1666,
      "ὼ": 1667,
      "ᾓ": 1668,
      "ᾰ": 1669,
      "ᾳ": 1670,
      "ᾶ": 1671,
      "ᾷ": 1672,
      "᾿": 1673,
      "ῆ": 1674,
      "ῇ": 1675,
      "Ὲ": 1676,
      "ῐ": 1677,
      "ῑ": 1678,
      "ῖ": 1679,
      "Ὶ": 1680,
      "ῠ": 1681,
      "ῥ": 1682,
      "ῦ": 1683,
      "Ῥ": 1684,
      "ῳ": 1685,
      "ῶ": 1686,
      "ῷ": 1687,
      "​": 1688,
      "‌": 1689,
      "‍": 1690,
      "‐": 1691,
      "‑": 1692,
      "‒": 1693,
      "–": 1694,
      "—": 1695,
      "―": 1696,
      "‖": 1697,
      "‘": 1698,
      "’": 1699,
      "‚": 1700,
      "‛": 1701,
      "“": 1702,
      "”": 1703,
      "„": 1704,
      "‟": 1705,
      "†": 1706,
      "‡": 1707,
      "•": 1708,
      "…": 1709,
      "‰": 1710,
      "′": 1711,
      "″": 1712,
      "※": 1713,
      "‼": 1714,
      "‿": 1715,
      "⁄": 1716,
      "⁊": 1717,
      "⁠": 1718,
      "⁡": 1719,
      "⁰": 1720,
      "⁺": 1721,
      "ⁿ": 1722,
      "₁": 1723,
      "₂": 1724,
      "₃": 1725,
      "₄": 1726,
      "₡": 1727,
      "₣": 1728,
      "₤": 1729,
      "₦": 1730,
      "₧": 1731,
      "₨": 1732,
      "₩": 1733,
      "₫": 1734,
      "€": 1735,
      "₱": 1736,
      "₴": 1737,
      "₹": 1738,
      "ℂ": 1739,
      "℃": 1740,
      "ℓ": 1741,
      "ℕ": 1742,
      "№": 1743,
      "ℛ": 1744,
      "ℝ": 1745,
      "℞": 1746,
      "™": 1747,
      "ℤ": 1748,
      "℥": 1749,
      "ℵ": 1750,
      "⅓": 1751,
      "⅔": 1752,
      "⅙": 1753,
      "⅛": 1754,
      "⅜": 1755,
      "⅝": 1756,
      "⅞": 1757,
      "Ⅱ": 1758,
      "←": 1759,
      "↑": 1760,
      "→": 1761,
      "↓": 1762,
      "↔": 1763,
      "↗": 1764,
      "↘": 1765,
      "↦": 1766,
      "↪": 1767,
      "↵": 1768,
      "⇄": 1769,
      "⇌": 1770,
      "⇒": 1771,
      "⇪": 1772,
      "∀": 1773,
      "∂": 1774,
      "∅": 1775,
      "∆": 1776,
      "∇": 1777,
      "∈": 1778,
      "∉": 1779,
      "∊": 1780,
      "∑": 1781,
      "−": 1782,
      "∕": 1783,
      "∖": 1784,
      "∗": 1785,
      "∘": 1786,
      "√": 1787,
      "∝": 1788,
      "∞": 1789,
      "∤": 1790,
      "∩": 1791,
      "∪": 1792,
      "∫": 1793,
      "∴": 1794,
      "∼": 1795,
      "≈": 1796,
      "≠": 1797,
      "≡": 1798,
      "≢": 1799,
      "≤": 1800,
      "≥": 1801,
      "≪": 1802,
      "≫": 1803,
      "≲": 1804,
      "⊂": 1805,
      "⊕": 1806,
      "⊗": 1807,
      "⊙": 1808,
      "⊞": 1809,
      "⊢": 1810,
      "⊣": 1811,
      "⊥": 1812,
      "⋅": 1813,
      "⋆": 1814,
      "⋯": 1815,
      "⌊": 1816,
      "⌋": 1817,
      "⌘": 1818,
      "①": 1819,
      "②": 1820,
      "③": 1821,
      "④": 1822,
      "⑤": 1823,
      "⑥": 1824,
      "⑦": 1825,
      "⑧": 1826,
      "─": 1827,
      "█": 1828,
      "▢": 1829,
      "▲": 1830,
      "▼": 1831,
      "○": 1832,
      "●": 1833,
      "◦": 1834,
      "☄": 1835,
      "★": 1836,
      "☆": 1837,
      "☉": 1838,
      "☧": 1839,
      "☫": 1840,
      "☭": 1841,
      "☽": 1842,
      "☾": 1843,
      "♀": 1844,
      "♂": 1845,
      "♄": 1846,
      "♅": 1847,
      "♆": 1848,
      "♇": 1849,
      "♈": 1850,
      "♉": 1851,
      "♠": 1852,
      "♣": 1853,
      "♥": 1854,
      "♦": 1855,
      "♩": 1856,
      "♪": 1857,
      "♭": 1858,
      "♮": 1859,
      "♯": 1860,
      "⚳": 1861,
      "⚴": 1862,
      "⚵": 1863,
      "⛢": 1864,
      "✡": 1865,
      "✱": 1866,
      "❄": 1867,
      "❅": 1868,
      "❆": 1869,
      "❤": 1870,
      "⟦": 1871,
      "⟧": 1872,
      "⟨": 1873,
      "⟩": 1874,
      "⥇": 1875,
      "⩽": 1876,
      "⫶": 1877,
      "ⱱ": 1878,
      "ⲁ": 1879,
      "ⲛ": 1880,
      "ⲥ": 1881,
      "ⲧ": 1882,
      "ⲩ": 1883,
      "Ⲫ": 1884,
      "ⲱ": 1885,
      "ⴰ": 1886,
      "ⴳ": 1887,
      "ⴷ": 1888,
      "ⴻ": 1889,
      "ⴼ": 1890,
      "ⴽ": 1891,
      "ⵃ": 1892,
      "ⵇ": 1893,
      "ⵉ": 1894,
      "ⵍ": 1895,
      "ⵎ": 1896,
      "ⵏ": 1897,
      "ⵓ": 1898,
      "ⵔ": 1899,
      "ⵕ": 1900,
      "ⵖ": 1901,
      "ⵙ": 1902,
      "ⵛ": 1903,
      "ⵜ": 1904,
      "ⵡ": 1905,
      "ⵢ": 1906,
      "ⵣ": 1907,
      "⸨": 1908,
      "⸩": 1909,
      "、": 1910,
      "。": 1911,
      "々": 1912,
      "〈": 1913,
      "〉": 1914,
      "《": 1915,
      "》": 1916,
      "「": 1917,
      "」": 1918,
      "『": 1919,
      "』": 1920,
      "【": 1921,
      "】": 1922,
      "〒": 1923,
      "〜": 1924,
      "あ": 1925,
      "ぃ": 1926,
      "い": 1927,
      "ぅ": 1928,
      "う": 1929,
      "ぇ": 1930,
      "え": 1931,
      "ぉ": 1932,
      "お": 1933,
      "か": 1934,
      "が": 1935,
      "き": 1936,
      "ぎ": 1937,
      "く": 1938,
      "ぐ": 1939,
      "け": 1940,
      "げ": 1941,
      "こ": 1942,
      "ご": 1943,
      "さ": 1944,
      "ざ": 1945,
      "し": 1946,
      "じ": 1947,
      "す": 1948,
      "ず": 1949,
      "せ": 1950,
      "ぜ": 1951,
      "そ": 1952,
      "ぞ": 1953,
      "た": 1954,
      "だ": 1955,
      "ち": 1956,
      "っ": 1957,
      "つ": 1958,
      "づ": 1959,
      "て": 1960,
      "で": 1961,
      "と": 1962,
      "ど": 1963,
      "な": 1964,
      "に": 1965,
      "ぬ": 1966,
      "ね": 1967,
      "の": 1968,
      "は": 1969,
      "ば": 1970,
      "ぱ": 1971,
      "ひ": 1972,
      "び": 1973,
      "ぴ": 1974,
      "ふ": 1975,
      "ぶ": 1976,
      "ぷ": 1977,
      "へ": 1978,
      "べ": 1979,
      "ぺ": 1980,
      "ほ": 1981,
      "ぼ": 1982,
      "ぽ": 1983,
      "ま": 1984,
      "み": 1985,
      "む": 1986,
      "め": 1987,
      "も": 1988,
      "ゃ": 1989,
      "や": 1990,
      "ゅ": 1991,
      "ゆ": 1992,
      "ょ": 1993,
      "よ": 1994,
      "ら": 1995,
      "り": 1996,
      "る": 1997,
      "れ": 1998,
      "ろ": 1999,
      "わ": 2000,
      "ゑ": 2001,
      "を": 2002,
      "ん": 2003,
      "ァ": 2004,
      "ア": 2005,
      "ィ": 2006,
      "イ": 2007,
      "ゥ": 2008,
      "ウ": 2009,
      "ェ": 2010,
      "エ": 2011,
      "ォ": 2012,
      "オ": 2013,
      "カ": 2014,
      "ガ": 2015,
      "キ": 2016,
      "ギ": 2017,
      "ク": 2018,
      "グ": 2019,
      "ケ": 2020,
      "ゲ": 2021,
      "コ": 2022,
      "ゴ": 2023,
      "サ": 2024,
      "ザ": 2025,
      "シ": 2026,
      "ジ": 2027,
      "ス": 2028,
      "ズ": 2029,
      "セ": 2030,
      "ゼ": 2031,
      "ソ": 2032,
      "ゾ": 2033,
      "タ": 2034,
      "ダ": 2035,
      "チ": 2036,
      "ヂ": 2037,
      "ッ": 2038,
      "ツ": 2039,
      "ヅ": 2040,
      "テ": 2041,
      "デ": 2042,
      "ト": 2043,
      "ド": 2044,
      "ナ": 2045,
      "ニ": 2046,
      "ヌ": 2047,
      "ネ": 2048,
      "ノ": 2049,
      "ハ": 2050,
      "バ": 2051,
      "パ": 2052,
      "ヒ": 2053,
      "ビ": 2054,
      "ピ": 2055,
      "フ": 2056,
      "ブ": 2057,
      "プ": 2058,
      "ヘ": 2059,
      "ベ": 2060,
      "ペ": 2061,
      "ホ": 2062,
      "ボ": 2063,
      "ポ": 2064,
      "マ": 2065,
      "ミ": 2066,
      "ム": 2067,
      "メ": 2068,
      "モ": 2069,
      "ャ": 2070,
      "ヤ": 2071,
      "ュ": 2072,
      "ユ": 2073,
      "ョ": 2074,
      "ヨ": 2075,
      "ラ": 2076,
      "リ": 2077,
      "ル": 2078,
      "レ": 2079,
      "ロ": 2080,
      "ワ": 2081,
      "ヲ": 2082,
      "ン": 2083,
      "ヴ": 2084,
      "ヶ": 2085,
      "・": 2086,
      "ー": 2087,
      "一": 2088,
      "丁": 2089,
      "七": 2090,
      "万": 2091,
      "丈": 2092,
      "三": 2093,
      "上": 2094,
      "下": 2095,
      "不": 2096,
      "与": 2097,
      "丑": 2098,
      "且": 2099,
      "世": 2100,
      "丘": 2101,
      "丙": 2102,
      "东": 2103,
      "丝": 2104,
      "丞": 2105,
      "両": 2106,
      "丨": 2107,
      "个": 2108,
      "中": 2109,
      "丶": 2110,
      "丸": 2111,
      "丹": 2112,
      "为": 2113,
      "主": 2114,
      "丽": 2115,
      "丿": 2116,
      "乃": 2117,
      "久": 2118,
      "么": 2119,
      "义": 2120,
      "之": 2121,
      "乌": 2122,
      "乎": 2123,
      "乐": 2124,
      "乘": 2125,
      "乙": 2126,
      "乚": 2127,
      "乛": 2128,
      "九": 2129,
      "也": 2130,
      "习": 2131,
      "书": 2132,
      "乩": 2133,
      "买": 2134,
      "乱": 2135,
      "乳": 2136,
      "乾": 2137,
      "亀": 2138,
      "亅": 2139,
      "了": 2140,
      "予": 2141,
      "争": 2142,
      "事": 2143,
      "二": 2144,
      "云": 2145,
      "五": 2146,
      "井": 2147,
      "亚": 2148,
      "些": 2149,
      "亜": 2150,
      "亞": 2151,
      "亡": 2152,
      "交": 2153,
      "亦": 2154,
      "亨": 2155,
      "京": 2156,
      "亮": 2157,
      "亰": 2158,
      "人": 2159,
      "什": 2160,
      "仁": 2161,
      "仇": 2162,
      "今": 2163,
      "介": 2164,
      "仔": 2165,
      "仕": 2166,
      "他": 2167,
      "付": 2168,
      "仙": 2169,
      "代": 2170,
      "令": 2171,
      "以": 2172,
      "仪": 2173,
      "们": 2174,
      "仮": 2175,
      "仰": 2176,
      "仲": 2177,
      "件": 2178,
      "任": 2179,
      "份": 2180,
      "伊": 2181,
      "伏": 2182,
      "伐": 2183,
      "休": 2184,
      "会": 2185,
      "伝": 2186,
      "伟": 2187,
      "传": 2188,
      "伪": 2189,
      "伯": 2190,
      "伴": 2191,
      "伸": 2192,
      "似": 2193,
      "佃": 2194,
      "但": 2195,
      "位": 2196,
      "住": 2197,
      "佐": 2198,
      "佑": 2199,
      "体": 2200,
      "何": 2201,
      "余": 2202,
      "佛": 2203,
      "作": 2204,
      "你": 2205,
      "佳": 2206,
      "併": 2207,
      "使": 2208,
      "來": 2209,
      "例": 2210,
      "侍": 2211,
      "侗": 2212,
      "供": 2213,
      "依": 2214,
      "侠": 2215,
      "侨": 2216,
      "侬": 2217,
      "侯": 2218,
      "係": 2219,
      "促": 2220,
      "俄": 2221,
      "俊": 2222,
      "保": 2223,
      "信": 2224,
      "俭": 2225,
      "修": 2226,
      "俱": 2227,
      "俳": 2228,
      "倉": 2229,
      "個": 2230,
      "們": 2231,
      "候": 2232,
      "借": 2233,
      "倪": 2234,
      "倫": 2235,
      "倭": 2236,
      "偃": 2237,
      "假": 2238,
      "偏": 2239,
      "健": 2240,
      "側": 2241,
      "偵": 2242,
      "偽": 2243,
      "傀": 2244,
      "傅": 2245,
      "傑": 2246,
      "傘": 2247,
      "備": 2248,
      "催": 2249,
      "傭": 2250,
      "傳": 2251,
      "傷": 2252,
      "像": 2253,
      "僑": 2254,
      "僕": 2255,
      "僧": 2256,
      "儀": 2257,
      "億": 2258,
      "儒": 2259,
      "儚": 2260,
      "儡": 2261,
      "優": 2262,
      "儿": 2263,
      "允": 2264,
      "元": 2265,
      "充": 2266,
      "兆": 2267,
      "先": 2268,
      "光": 2269,
      "克": 2270,
      "免": 2271,
      "兒": 2272,
      "兔": 2273,
      "兜": 2274,
      "入": 2275,
      "內": 2276,
      "全": 2277,
      "兩": 2278,
      "八": 2279,
      "公": 2280,
      "六": 2281,
      "兰": 2282,
      "共": 2283,
      "关": 2284,
      "兵": 2285,
      "其": 2286,
      "具": 2287,
      "典": 2288,
      "养": 2289,
      "冀": 2290,
      "内": 2291,
      "円": 2292,
      "冉": 2293,
      "册": 2294,
      "再": 2295,
      "冒": 2296,
      "写": 2297,
      "军": 2298,
      "冠": 2299,
      "冥": 2300,
      "冫": 2301,
      "冬": 2302,
      "冯": 2303,
      "决": 2304,
      "冴": 2305,
      "冶": 2306,
      "冷": 2307,
      "净": 2308,
      "准": 2309,
      "凌": 2310,
      "凤": 2311,
      "処": 2312,
      "凪": 2313,
      "凯": 2314,
      "凰": 2315,
      "凱": 2316,
      "凶": 2317,
      "凹": 2318,
      "出": 2319,
      "刀": 2320,
      "刃": 2321,
      "分": 2322,
      "切": 2323,
      "刊": 2324,
      "划": 2325,
      "列": 2326,
      "刘": 2327,
      "初": 2328,
      "判": 2329,
      "別": 2330,
      "利": 2331,
      "别": 2332,
      "到": 2333,
      "制": 2334,
      "刷": 2335,
      "券": 2336,
      "刹": 2337,
      "刺": 2338,
      "刻": 2339,
      "則": 2340,
      "前": 2341,
      "剑": 2342,
      "剛": 2343,
      "剣": 2344,
      "剧": 2345,
      "剩": 2346,
      "副": 2347,
      "割": 2348,
      "創": 2349,
      "劃": 2350,
      "劇": 2351,
      "劉": 2352,
      "劍": 2353,
      "力": 2354,
      "办": 2355,
      "功": 2356,
      "加": 2357,
      "劣": 2358,
      "动": 2359,
      "助": 2360,
      "劳": 2361,
      "勃": 2362,
      "勅": 2363,
      "勇": 2364,
      "勒": 2365,
      "動": 2366,
      "勘": 2367,
      "務": 2368,
      "勝": 2369,
      "勞": 2370,
      "勢": 2371,
      "勳": 2372,
      "勾": 2373,
      "包": 2374,
      "化": 2375,
      "北": 2376,
      "匠": 2377,
      "匹": 2378,
      "区": 2379,
      "医": 2380,
      "區": 2381,
      "十": 2382,
      "千": 2383,
      "升": 2384,
      "午": 2385,
      "半": 2386,
      "华": 2387,
      "协": 2388,
      "卐": 2389,
      "卒": 2390,
      "卓": 2391,
      "協": 2392,
      "单": 2393,
      "卖": 2394,
      "南": 2395,
      "博": 2396,
      "卜": 2397,
      "占": 2398,
      "卡": 2399,
      "卢": 2400,
      "卦": 2401,
      "卫": 2402,
      "印": 2403,
      "危": 2404,
      "即": 2405,
      "却": 2406,
      "卸": 2407,
      "卿": 2408,
      "厂": 2409,
      "厄": 2410,
      "历": 2411,
      "厘": 2412,
      "厚": 2413,
      "原": 2414,
      "厥": 2415,
      "厦": 2416,
      "厩": 2417,
      "去": 2418,
      "县": 2419,
      "参": 2420,
      "參": 2421,
      "叉": 2422,
      "及": 2423,
      "友": 2424,
      "双": 2425,
      "反": 2426,
      "収": 2427,
      "发": 2428,
      "叔": 2429,
      "取": 2430,
      "受": 2431,
      "变": 2432,
      "叛": 2433,
      "叠": 2434,
      "叡": 2435,
      "叢": 2436,
      "口": 2437,
      "古": 2438,
      "句": 2439,
      "只": 2440,
      "叫": 2441,
      "召": 2442,
      "可": 2443,
      "台": 2444,
      "史": 2445,
      "右": 2446,
      "叶": 2447,
      "号": 2448,
      "司": 2449,
      "合": 2450,
      "吉": 2451,
      "同": 2452,
      "名": 2453,
      "后": 2454,
      "向": 2455,
      "吕": 2456,
      "君": 2457,
      "吞": 2458,
      "吟": 2459,
      "吧": 2460,
      "启": 2461,
      "吳": 2462,
      "吴": 2463,
      "吸": 2464,
      "吹": 2465,
      "吾": 2466,
      "呂": 2467,
      "呉": 2468,
      "告": 2469,
      "周": 2470,
      "呪": 2471,
      "味": 2472,
      "呼": 2473,
      "命": 2474,
      "咆": 2475,
      "和": 2476,
      "咖": 2477,
      "咙": 2478,
      "咫": 2479,
      "咲": 2480,
      "咸": 2481,
      "哀": 2482,
      "品": 2483,
      "哈": 2484,
      "哉": 2485,
      "响": 2486,
      "員": 2487,
      "哥": 2488,
      "哮": 2489,
      "哲": 2490,
      "唄": 2491,
      "唐": 2492,
      "唯": 2493,
      "唱": 2494,
      "商": 2495,
      "問": 2496,
      "啓": 2497,
      "啟": 2498,
      "啡": 2499,
      "善": 2500,
      "喇": 2501,
      "喋": 2502,
      "喚": 2503,
      "喜": 2504,
      "喝": 2505,
      "喬": 2506,
      "嘉": 2507,
      "嘘": 2508,
      "噛": 2509,
      "器": 2510,
      "嚣": 2511,
      "嚴": 2512,
      "囁": 2513,
      "囂": 2514,
      "囃": 2515,
      "囚": 2516,
      "四": 2517,
      "回": 2518,
      "因": 2519,
      "团": 2520,
      "団": 2521,
      "図": 2522,
      "国": 2523,
      "图": 2524,
      "圈": 2525,
      "國": 2526,
      "圍": 2527,
      "圏": 2528,
      "園": 2529,
      "圓": 2530,
      "圖": 2531,
      "土": 2532,
      "圣": 2533,
      "圧": 2534,
      "在": 2535,
      "地": 2536,
      "圻": 2537,
      "坂": 2538,
      "均": 2539,
      "坊": 2540,
      "坑": 2541,
      "块": 2542,
      "坚": 2543,
      "坝": 2544,
      "坡": 2545,
      "坤": 2546,
      "坪": 2547,
      "型": 2548,
      "垣": 2549,
      "城": 2550,
      "埔": 2551,
      "域": 2552,
      "執": 2553,
      "培": 2554,
      "基": 2555,
      "堀": 2556,
      "堂": 2557,
      "堅": 2558,
      "堆": 2559,
      "堡": 2560,
      "堤": 2561,
      "堯": 2562,
      "報": 2563,
      "場": 2564,
      "塊": 2565,
      "塔": 2566,
      "塘": 2567,
      "塚": 2568,
      "塞": 2569,
      "塩": 2570,
      "填": 2571,
      "塵": 2572,
      "境": 2573,
      "墓": 2574,
      "墙": 2575,
      "增": 2576,
      "壁": 2577,
      "壌": 2578,
      "壓": 2579,
      "壟": 2580,
      "壤": 2581,
      "士": 2582,
      "壬": 2583,
      "壮": 2584,
      "壯": 2585,
      "声": 2586,
      "壱": 2587,
      "売": 2588,
      "壳": 2589,
      "壷": 2590,
      "壽": 2591,
      "处": 2592,
      "备": 2593,
      "変": 2594,
      "复": 2595,
      "夏": 2596,
      "夕": 2597,
      "外": 2598,
      "多": 2599,
      "夜": 2600,
      "够": 2601,
      "夢": 2602,
      "夤": 2603,
      "大": 2604,
      "天": 2605,
      "太": 2606,
      "夫": 2607,
      "央": 2608,
      "失": 2609,
      "头": 2610,
      "夷": 2611,
      "奇": 2612,
      "奈": 2613,
      "奉": 2614,
      "奎": 2615,
      "奏": 2616,
      "奐": 2617,
      "契": 2618,
      "奔": 2619,
      "套": 2620,
      "奥": 2621,
      "奧": 2622,
      "奪": 2623,
      "女": 2624,
      "奴": 2625,
      "好": 2626,
      "如": 2627,
      "妃": 2628,
      "妇": 2629,
      "妍": 2630,
      "妖": 2631,
      "妙": 2632,
      "妮": 2633,
      "妹": 2634,
      "妻": 2635,
      "姉": 2636,
      "姊": 2637,
      "始": 2638,
      "姑": 2639,
      "委": 2640,
      "姚": 2641,
      "姥": 2642,
      "姦": 2643,
      "姫": 2644,
      "姬": 2645,
      "姿": 2646,
      "威": 2647,
      "娘": 2648,
      "娜": 2649,
      "婁": 2650,
      "婆": 2651,
      "婚": 2652,
      "婷": 2653,
      "嫁": 2654,
      "嬢": 2655,
      "嬴": 2656,
      "子": 2657,
      "孔": 2658,
      "字": 2659,
      "存": 2660,
      "孙": 2661,
      "孛": 2662,
      "孝": 2663,
      "孟": 2664,
      "季": 2665,
      "孤": 2666,
      "学": 2667,
      "孩": 2668,
      "孫": 2669,
      "孵": 2670,
      "學": 2671,
      "宁": 2672,
      "宅": 2673,
      "宇": 2674,
      "守": 2675,
      "安": 2676,
      "宋": 2677,
      "完": 2678,
      "宏": 2679,
      "宗": 2680,
      "官": 2681,
      "宙": 2682,
      "定": 2683,
      "宜": 2684,
      "宝": 2685,
      "实": 2686,
      "実": 2687,
      "客": 2688,
      "宣": 2689,
      "室": 2690,
      "宫": 2691,
      "宮": 2692,
      "宴": 2693,
      "宵": 2694,
      "家": 2695,
      "宸": 2696,
      "容": 2697,
      "宿": 2698,
      "寂": 2699,
      "寄": 2700,
      "密": 2701,
      "寇": 2702,
      "富": 2703,
      "寔": 2704,
      "寗": 2705,
      "寛": 2706,
      "寝": 2707,
      "寞": 2708,
      "察": 2709,
      "寧": 2710,
      "寨": 2711,
      "審": 2712,
      "寬": 2713,
      "寵": 2714,
      "寶": 2715,
      "寸": 2716,
      "对": 2717,
      "寺": 2718,
      "寻": 2719,
      "対": 2720,
      "寿": 2721,
      "封": 2722,
      "射": 2723,
      "将": 2724,
      "將": 2725,
      "尉": 2726,
      "尊": 2727,
      "尋": 2728,
      "對": 2729,
      "導": 2730,
      "小": 2731,
      "少": 2732,
      "尔": 2733,
      "尚": 2734,
      "尧": 2735,
      "就": 2736,
      "尸": 2737,
      "尹": 2738,
      "尺": 2739,
      "尼": 2740,
      "尽": 2741,
      "尾": 2742,
      "局": 2743,
      "居": 2744,
      "届": 2745,
      "屋": 2746,
      "屍": 2747,
      "屑": 2748,
      "展": 2749,
      "屠": 2750,
      "層": 2751,
      "屬": 2752,
      "屯": 2753,
      "山": 2754,
      "屿": 2755,
      "岐": 2756,
      "岑": 2757,
      "岚": 2758,
      "岛": 2759,
      "岡": 2760,
      "岩": 2761,
      "岬": 2762,
      "岭": 2763,
      "岳": 2764,
      "岸": 2765,
      "峰": 2766,
      "島": 2767,
      "崇": 2768,
      "崎": 2769,
      "崔": 2770,
      "崖": 2771,
      "嵐": 2772,
      "嶋": 2773,
      "嶺": 2774,
      "嶼": 2775,
      "巂": 2776,
      "巖": 2777,
      "川": 2778,
      "州": 2779,
      "巡": 2780,
      "工": 2781,
      "左": 2782,
      "巨": 2783,
      "巫": 2784,
      "差": 2785,
      "己": 2786,
      "巳": 2787,
      "巴": 2788,
      "巻": 2789,
      "币": 2790,
      "市": 2791,
      "布": 2792,
      "帆": 2793,
      "师": 2794,
      "希": 2795,
      "帕": 2796,
      "帖": 2797,
      "帝": 2798,
      "帥": 2799,
      "带": 2800,
      "師": 2801,
      "帮": 2802,
      "帰": 2803,
      "帶": 2804,
      "常": 2805,
      "幕": 2806,
      "幡": 2807,
      "幣": 2808,
      "干": 2809,
      "平": 2810,
      "年": 2811,
      "幸": 2812,
      "幻": 2813,
      "幽": 2814,
      "广": 2815,
      "庁": 2816,
      "広": 2817,
      "庄": 2818,
      "庆": 2819,
      "庇": 2820,
      "序": 2821,
      "库": 2822,
      "底": 2823,
      "庖": 2824,
      "店": 2825,
      "庙": 2826,
      "庚": 2827,
      "府": 2828,
      "度": 2829,
      "座": 2830,
      "庫": 2831,
      "庭": 2832,
      "庵": 2833,
      "康": 2834,
      "廉": 2835,
      "廊": 2836,
      "廖": 2837,
      "廟": 2838,
      "廣": 2839,
      "廬": 2840,
      "延": 2841,
      "廷": 2842,
      "建": 2843,
      "廻": 2844,
      "廿": 2845,
      "开": 2846,
      "弁": 2847,
      "式": 2848,
      "弐": 2849,
      "弓": 2850,
      "弔": 2851,
      "引": 2852,
      "弘": 2853,
      "弟": 2854,
      "张": 2855,
      "弥": 2856,
      "弦": 2857,
      "弧": 2858,
      "弱": 2859,
      "張": 2860,
      "強": 2861,
      "弹": 2862,
      "强": 2863,
      "弾": 2864,
      "彌": 2865,
      "当": 2866,
      "录": 2867,
      "彖": 2868,
      "彙": 2869,
      "形": 2870,
      "彦": 2871,
      "彩": 2872,
      "彪": 2873,
      "彬": 2874,
      "彭": 2875,
      "影": 2876,
      "役": 2877,
      "彼": 2878,
      "征": 2879,
      "径": 2880,
      "待": 2881,
      "律": 2882,
      "後": 2883,
      "徐": 2884,
      "徒": 2885,
      "得": 2886,
      "從": 2887,
      "御": 2888,
      "復": 2889,
      "微": 2890,
      "徳": 2891,
      "德": 2892,
      "徹": 2893,
      "徽": 2894,
      "心": 2895,
      "必": 2896,
      "忍": 2897,
      "志": 2898,
      "忘": 2899,
      "応": 2900,
      "忠": 2901,
      "快": 2902,
      "念": 2903,
      "怀": 2904,
      "怎": 2905,
      "怒": 2906,
      "怖": 2907,
      "思": 2908,
      "怡": 2909,
      "急": 2910,
      "性": 2911,
      "怨": 2912,
      "怪": 2913,
      "总": 2914,
      "恆": 2915,
      "恋": 2916,
      "恐": 2917,
      "恒": 2918,
      "恢": 2919,
      "恥": 2920,
      "恩": 2921,
      "恭": 2922,
      "息": 2923,
      "恵": 2924,
      "恼": 2925,
      "悔": 2926,
      "悟": 2927,
      "悠": 2928,
      "悦": 2929,
      "悪": 2930,
      "悫": 2931,
      "悲": 2932,
      "悼": 2933,
      "情": 2934,
      "惑": 2935,
      "惟": 2936,
      "惠": 2937,
      "惡": 2938,
      "想": 2939,
      "愁": 2940,
      "愍": 2941,
      "意": 2942,
      "愚": 2943,
      "愛": 2944,
      "感": 2945,
      "愽": 2946,
      "慈": 2947,
      "態": 2948,
      "慎": 2949,
      "慧": 2950,
      "慰": 2951,
      "慶": 2952,
      "憂": 2953,
      "憎": 2954,
      "憑": 2955,
      "憲": 2956,
      "憶": 2957,
      "應": 2958,
      "懍": 2959,
      "懷": 2960,
      "戈": 2961,
      "戊": 2962,
      "戎": 2963,
      "成": 2964,
      "我": 2965,
      "战": 2966,
      "戦": 2967,
      "戯": 2968,
      "戰": 2969,
      "戴": 2970,
      "户": 2971,
      "戸": 2972,
      "房": 2973,
      "所": 2974,
      "扁": 2975,
      "扇": 2976,
      "扈": 2977,
      "扉": 2978,
      "手": 2979,
      "才": 2980,
      "打": 2981,
      "托": 2982,
      "扶": 2983,
      "找": 2984,
      "承": 2985,
      "技": 2986,
      "抄": 2987,
      "抓": 2988,
      "投": 2989,
      "抜": 2990,
      "択": 2991,
      "护": 2992,
      "报": 2993,
      "披": 2994,
      "抱": 2995,
      "抵": 2996,
      "担": 2997,
      "拉": 2998,
      "拍": 2999,
      "拏": 3000,
      "拐": 3001,
      "拖": 3002,
      "拘": 3003,
      "招": 3004,
      "拜": 3005,
      "拟": 3006,
      "拥": 3007,
      "括": 3008,
      "拱": 3009,
      "拳": 3010,
      "拾": 3011,
      "持": 3012,
      "挂": 3013,
      "指": 3014,
      "挑": 3015,
      "挥": 3016,
      "振": 3017,
      "据": 3018,
      "捷": 3019,
      "授": 3020,
      "掛": 3021,
      "採": 3022,
      "探": 3023,
      "控": 3024,
      "掲": 3025,
      "描": 3026,
      "提": 3027,
      "揚": 3028,
      "換": 3029,
      "援": 3030,
      "揺": 3031,
      "摂": 3032,
      "摩": 3033,
      "摸": 3034,
      "撃": 3035,
      "撒": 3036,
      "撞": 3037,
      "播": 3038,
      "撲": 3039,
      "操": 3040,
      "攝": 3041,
      "支": 3042,
      "收": 3043,
      "改": 3044,
      "攻": 3045,
      "放": 3046,
      "政": 3047,
      "故": 3048,
      "敏": 3049,
      "救": 3050,
      "教": 3051,
      "敢": 3052,
      "散": 3053,
      "敦": 3054,
      "敬": 3055,
      "数": 3056,
      "敵": 3057,
      "敷": 3058,
      "數": 3059,
      "文": 3060,
      "斉": 3061,
      "斎": 3062,
      "斗": 3063,
      "料": 3064,
      "斜": 3065,
      "斤": 3066,
      "斩": 3067,
      "斬": 3068,
      "断": 3069,
      "斯": 3070,
      "新": 3071,
      "方": 3072,
      "於": 3073,
      "施": 3074,
      "旅": 3075,
      "旋": 3076,
      "族": 3077,
      "旗": 3078,
      "无": 3079,
      "日": 3080,
      "旦": 3081,
      "旧": 3082,
      "早": 3083,
      "旭": 3084,
      "时": 3085,
      "旺": 3086,
      "昂": 3087,
      "昇": 3088,
      "昌": 3089,
      "明": 3090,
      "昏": 3091,
      "易": 3092,
      "昔": 3093,
      "星": 3094,
      "映": 3095,
      "春": 3096,
      "昭": 3097,
      "是": 3098,
      "昼": 3099,
      "時": 3100,
      "晉": 3101,
      "晋": 3102,
      "晒": 3103,
      "普": 3104,
      "景": 3105,
      "晴": 3106,
      "晶": 3107,
      "智": 3108,
      "暁": 3109,
      "暂": 3110,
      "暖": 3111,
      "暗": 3112,
      "暦": 3113,
      "暮": 3114,
      "暴": 3115,
      "曆": 3116,
      "曜": 3117,
      "曦": 3118,
      "曲": 3119,
      "更": 3120,
      "書": 3121,
      "曹": 3122,
      "曼": 3123,
      "曾": 3124,
      "最": 3125,
      "會": 3126,
      "月": 3127,
      "有": 3128,
      "朋": 3129,
      "服": 3130,
      "朏": 3131,
      "朔": 3132,
      "朗": 3133,
      "望": 3134,
      "朝": 3135,
      "期": 3136,
      "朧": 3137,
      "木": 3138,
      "未": 3139,
      "末": 3140,
      "本": 3141,
      "札": 3142,
      "朱": 3143,
      "朴": 3144,
      "朵": 3145,
      "机": 3146,
      "朽": 3147,
      "杀": 3148,
      "杂": 3149,
      "权": 3150,
      "李": 3151,
      "杏": 3152,
      "材": 3153,
      "村": 3154,
      "杖": 3155,
      "杜": 3156,
      "束": 3157,
      "条": 3158,
      "来": 3159,
      "杨": 3160,
      "杯": 3161,
      "東": 3162,
      "杲": 3163,
      "松": 3164,
      "板": 3165,
      "极": 3166,
      "析": 3167,
      "林": 3168,
      "枚": 3169,
      "果": 3170,
      "枝": 3171,
      "枭": 3172,
      "枯": 3173,
      "架": 3174,
      "柆": 3175,
      "柏": 3176,
      "柔": 3177,
      "柚": 3178,
      "柩": 3179,
      "柱": 3180,
      "柳": 3181,
      "柴": 3182,
      "査": 3183,
      "栄": 3184,
      "标": 3185,
      "栈": 3186,
      "树": 3187,
      "栖": 3188,
      "栗": 3189,
      "栞": 3190,
      "校": 3191,
      "株": 3192,
      "样": 3193,
      "核": 3194,
      "根": 3195,
      "格": 3196,
      "栽": 3197,
      "栾": 3198,
      "桀": 3199,
      "桂": 3200,
      "桃": 3201,
      "案": 3202,
      "桎": 3203,
      "桐": 3204,
      "桑": 3205,
      "桓": 3206,
      "桜": 3207,
      "桥": 3208,
      "桧": 3209,
      "梁": 3210,
      "梅": 3211,
      "梏": 3212,
      "梓": 3213,
      "條": 3214,
      "梦": 3215,
      "梨": 3216,
      "梭": 3217,
      "梯": 3218,
      "械": 3219,
      "梵": 3220,
      "梶": 3221,
      "棋": 3222,
      "棍": 3223,
      "棗": 3224,
      "棘": 3225,
      "棚": 3226,
      "棟": 3227,
      "森": 3228,
      "棲": 3229,
      "棵": 3230,
      "棺": 3231,
      "椅": 3232,
      "植": 3233,
      "椎": 3234,
      "椒": 3235,
      "椛": 3236,
      "検": 3237,
      "椰": 3238,
      "椿": 3239,
      "楊": 3240,
      "楚": 3241,
      "楠": 3242,
      "業": 3243,
      "楯": 3244,
      "極": 3245,
      "楼": 3246,
      "楽": 3247,
      "概": 3248,
      "榆": 3249,
      "榊": 3250,
      "榔": 3251,
      "榛": 3252,
      "榮": 3253,
      "榴": 3254,
      "槐": 3255,
      "様": 3256,
      "槤": 3257,
      "槻": 3258,
      "樂": 3259,
      "樉": 3260,
      "樊": 3261,
      "樓": 3262,
      "樗": 3263,
      "標": 3264,
      "樛": 3265,
      "模": 3266,
      "権": 3267,
      "横": 3268,
      "樱": 3269,
      "樸": 3270,
      "樹": 3271,
      "橋": 3272,
      "橘": 3273,
      "橚": 3274,
      "機": 3275,
      "橫": 3276,
      "橿": 3277,
      "檀": 3278,
      "檜": 3279,
      "檳": 3280,
      "檻": 3281,
      "櫓": 3282,
      "櫻": 3283,
      "權": 3284,
      "欒": 3285,
      "欠": 3286,
      "次": 3287,
      "欣": 3288,
      "欲": 3289,
      "欽": 3290,
      "歌": 3291,
      "歓": 3292,
      "歡": 3293,
      "止": 3294,
      "正": 3295,
      "步": 3296,
      "武": 3297,
      "歩": 3298,
      "歪": 3299,
      "歲": 3300,
      "歳": 3301,
      "歴": 3302,
      "歷": 3303,
      "歸": 3304,
      "死": 3305,
      "殊": 3306,
      "残": 3307,
      "段": 3308,
      "殺": 3309,
      "殻": 3310,
      "殿": 3311,
      "毅": 3312,
      "母": 3313,
      "毎": 3314,
      "每": 3315,
      "比": 3316,
      "毕": 3317,
      "毘": 3318,
      "毛": 3319,
      "毫": 3320,
      "毬": 3321,
      "氏": 3322,
      "民": 3323,
      "气": 3324,
      "気": 3325,
      "氣": 3326,
      "水": 3327,
      "氷": 3328,
      "永": 3329,
      "氾": 3330,
      "汇": 3331,
      "汉": 3332,
      "汐": 3333,
      "汗": 3334,
      "汝": 3335,
      "江": 3336,
      "池": 3337,
      "汤": 3338,
      "汪": 3339,
      "汰": 3340,
      "汶": 3341,
      "決": 3342,
      "汽": 3343,
      "沂": 3344,
      "沃": 3345,
      "沈": 3346,
      "沉": 3347,
      "沌": 3348,
      "沐": 3349,
      "沒": 3350,
      "沖": 3351,
      "沙": 3352,
      "沛": 3353,
      "没": 3354,
      "沢": 3355,
      "沫": 3356,
      "河": 3357,
      "沸": 3358,
      "油": 3359,
      "治": 3360,
      "沼": 3361,
      "沽": 3362,
      "泉": 3363,
      "泊": 3364,
      "法": 3365,
      "泗": 3366,
      "泡": 3367,
      "波": 3368,
      "泣": 3369,
      "泥": 3370,
      "注": 3371,
      "泰": 3372,
      "泾": 3373,
      "洁": 3374,
      "洋": 3375,
      "洛": 3376,
      "洞": 3377,
      "津": 3378,
      "洪": 3379,
      "洲": 3380,
      "活": 3381,
      "派": 3382,
      "流": 3383,
      "浅": 3384,
      "浙": 3385,
      "浚": 3386,
      "浜": 3387,
      "浦": 3388,
      "浩": 3389,
      "浪": 3390,
      "浮": 3391,
      "海": 3392,
      "消": 3393,
      "涙": 3394,
      "润": 3395,
      "涵": 3396,
      "涼": 3397,
      "淇": 3398,
      "淑": 3399,
      "淘": 3400,
      "淡": 3401,
      "淨": 3402,
      "深": 3403,
      "淳": 3404,
      "淵": 3405,
      "淹": 3406,
      "添": 3407,
      "清": 3408,
      "渊": 3409,
      "渚": 3410,
      "減": 3411,
      "渠": 3412,
      "渡": 3413,
      "渣": 3414,
      "渥": 3415,
      "渦": 3416,
      "温": 3417,
      "測": 3418,
      "港": 3419,
      "游": 3420,
      "渾": 3421,
      "湊": 3422,
      "湖": 3423,
      "湯": 3424,
      "湾": 3425,
      "満": 3426,
      "源": 3427,
      "準": 3428,
      "溜": 3429,
      "溢": 3430,
      "溪": 3431,
      "溫": 3432,
      "溶": 3433,
      "滅": 3434,
      "滋": 3435,
      "滑": 3436,
      "滨": 3437,
      "滿": 3438,
      "漁": 3439,
      "漂": 3440,
      "漆": 3441,
      "漏": 3442,
      "漠": 3443,
      "漢": 3444,
      "漫": 3445,
      "漳": 3446,
      "漸": 3447,
      "潘": 3448,
      "潜": 3449,
      "潤": 3450,
      "澄": 3451,
      "澤": 3452,
      "澪": 3453,
      "激": 3454,
      "濃": 3455,
      "濞": 3456,
      "濟": 3457,
      "瀛": 3458,
      "瀬": 3459,
      "灣": 3460,
      "火": 3461,
      "灯": 3462,
      "灰": 3463,
      "灵": 3464,
      "灶": 3465,
      "灼": 3466,
      "災": 3467,
      "灾": 3468,
      "炎": 3469,
      "炬": 3470,
      "炮": 3471,
      "炯": 3472,
      "炷": 3473,
      "炸": 3474,
      "点": 3475,
      "為": 3476,
      "炼": 3477,
      "烈": 3478,
      "烏": 3479,
      "烙": 3480,
      "烟": 3481,
      "烦": 3482,
      "烧": 3483,
      "焉": 3484,
      "焔": 3485,
      "無": 3486,
      "焦": 3487,
      "然": 3488,
      "焼": 3489,
      "煌": 3490,
      "煙": 3491,
      "煜": 3492,
      "照": 3493,
      "煩": 3494,
      "煮": 3495,
      "熊": 3496,
      "熔": 3497,
      "熙": 3498,
      "熟": 3499,
      "熱": 3500,
      "燃": 3501,
      "燈": 3502,
      "燕": 3503,
      "營": 3504,
      "爆": 3505,
      "爪": 3506,
      "爭": 3507,
      "爱": 3508,
      "爲": 3509,
      "爵": 3510,
      "父": 3511,
      "爺": 3512,
      "爻": 3513,
      "爽": 3514,
      "爾": 3515,
      "片": 3516,
      "版": 3517,
      "牌": 3518,
      "牙": 3519,
      "牛": 3520,
      "牡": 3521,
      "牢": 3522,
      "牧": 3523,
      "物": 3524,
      "牵": 3525,
      "特": 3526,
      "犖": 3527,
      "犬": 3528,
      "犯": 3529,
      "狀": 3530,
      "狂": 3531,
      "狐": 3532,
      "狗": 3533,
      "狛": 3534,
      "狡": 3535,
      "狩": 3536,
      "独": 3537,
      "狭": 3538,
      "狱": 3539,
      "狸": 3540,
      "狼": 3541,
      "猛": 3542,
      "猩": 3543,
      "猪": 3544,
      "猫": 3545,
      "献": 3546,
      "猿": 3547,
      "獄": 3548,
      "獅": 3549,
      "獣": 3550,
      "獵": 3551,
      "獻": 3552,
      "玄": 3553,
      "玉": 3554,
      "王": 3555,
      "玖": 3556,
      "玩": 3557,
      "玲": 3558,
      "珂": 3559,
      "珍": 3560,
      "珙": 3561,
      "珠": 3562,
      "現": 3563,
      "球": 3564,
      "理": 3565,
      "琦": 3566,
      "琪": 3567,
      "琬": 3568,
      "琮": 3569,
      "琴": 3570,
      "瑋": 3571,
      "瑙": 3572,
      "瑜": 3573,
      "瑞": 3574,
      "瑠": 3575,
      "瑣": 3576,
      "瑪": 3577,
      "瑾": 3578,
      "璉": 3579,
      "環": 3580,
      "璽": 3581,
      "瓊": 3582,
      "瓜": 3583,
      "瓢": 3584,
      "瓦": 3585,
      "瓩": 3586,
      "瓷": 3587,
      "甘": 3588,
      "甜": 3589,
      "生": 3590,
      "產": 3591,
      "産": 3592,
      "用": 3593,
      "甫": 3594,
      "田": 3595,
      "由": 3596,
      "甲": 3597,
      "申": 3598,
      "男": 3599,
      "町": 3600,
      "画": 3601,
      "甽": 3602,
      "界": 3603,
      "畑": 3604,
      "留": 3605,
      "畜": 3606,
      "畢": 3607,
      "略": 3608,
      "番": 3609,
      "畫": 3610,
      "異": 3611,
      "疆": 3612,
      "疾": 3613,
      "病": 3614,
      "症": 3615,
      "痘": 3616,
      "痛": 3617,
      "痴": 3618,
      "瘡": 3619,
      "瘤": 3620,
      "発": 3621,
      "登": 3622,
      "發": 3623,
      "白": 3624,
      "百": 3625,
      "的": 3626,
      "皇": 3627,
      "皙": 3628,
      "皮": 3629,
      "皿": 3630,
      "盆": 3631,
      "盈": 3632,
      "益": 3633,
      "盏": 3634,
      "盐": 3635,
      "监": 3636,
      "盒": 3637,
      "盗": 3638,
      "盘": 3639,
      "盛": 3640,
      "盟": 3641,
      "監": 3642,
      "盤": 3643,
      "盧": 3644,
      "目": 3645,
      "直": 3646,
      "相": 3647,
      "盼": 3648,
      "省": 3649,
      "看": 3650,
      "県": 3651,
      "眞": 3652,
      "真": 3653,
      "眼": 3654,
      "着": 3655,
      "督": 3656,
      "瞬": 3657,
      "瞳": 3658,
      "矢": 3659,
      "知": 3660,
      "矩": 3661,
      "短": 3662,
      "矮": 3663,
      "矯": 3664,
      "石": 3665,
      "砂": 3666,
      "砍": 3667,
      "研": 3668,
      "砖": 3669,
      "砲": 3670,
      "破": 3671,
      "硕": 3672,
      "硝": 3673,
      "硨": 3674,
      "碍": 3675,
      "碗": 3676,
      "碩": 3677,
      "確": 3678,
      "碼": 3679,
      "磁": 3680,
      "磅": 3681,
      "磐": 3682,
      "磨": 3683,
      "磯": 3684,
      "磲": 3685,
      "礁": 3686,
      "礎": 3687,
      "礮": 3688,
      "示": 3689,
      "礼": 3690,
      "社": 3691,
      "祀": 3692,
      "祈": 3693,
      "祐": 3694,
      "祖": 3695,
      "祚": 3696,
      "神": 3697,
      "祠": 3698,
      "祥": 3699,
      "票": 3700,
      "祭": 3701,
      "祺": 3702,
      "祿": 3703,
      "禁": 3704,
      "禄": 3705,
      "禎": 3706,
      "福": 3707,
      "禦": 3708,
      "禮": 3709,
      "禰": 3710,
      "禺": 3711,
      "禾": 3712,
      "秀": 3713,
      "私": 3714,
      "秋": 3715,
      "科": 3716,
      "秒": 3717,
      "秘": 3718,
      "租": 3719,
      "秤": 3720,
      "秦": 3721,
      "移": 3722,
      "程": 3723,
      "稔": 3724,
      "稚": 3725,
      "種": 3726,
      "稲": 3727,
      "稷": 3728,
      "稽": 3729,
      "穂": 3730,
      "穌": 3731,
      "積": 3732,
      "穎": 3733,
      "穗": 3734,
      "穢": 3735,
      "究": 3736,
      "空": 3737,
      "突": 3738,
      "窓": 3739,
      "窗": 3740,
      "窟": 3741,
      "竇": 3742,
      "立": 3743,
      "站": 3744,
      "竜": 3745,
      "章": 3746,
      "童": 3747,
      "端": 3748,
      "竹": 3749,
      "竺": 3750,
      "笑": 3751,
      "笔": 3752,
      "笛": 3753,
      "笠": 3754,
      "符": 3755,
      "笨": 3756,
      "第": 3757,
      "笹": 3758,
      "筆": 3759,
      "等": 3760,
      "筋": 3761,
      "筍": 3762,
      "筐": 3763,
      "筑": 3764,
      "答": 3765,
      "策": 3766,
      "筹": 3767,
      "箇": 3768,
      "箋": 3769,
      "算": 3770,
      "管": 3771,
      "箪": 3772,
      "箭": 3773,
      "箱": 3774,
      "節": 3775,
      "範": 3776,
      "篇": 3777,
      "篋": 3778,
      "篚": 3779,
      "篤": 3780,
      "簡": 3781,
      "簿": 3782,
      "籃": 3783,
      "籌": 3784,
      "籍": 3785,
      "籠": 3786,
      "米": 3787,
      "籵": 3788,
      "粁": 3789,
      "粉": 3790,
      "粍": 3791,
      "粟": 3792,
      "粥": 3793,
      "粨": 3794,
      "精": 3795,
      "糊": 3796,
      "糎": 3797,
      "糖": 3798,
      "糸": 3799,
      "系": 3800,
      "紀": 3801,
      "約": 3802,
      "紅": 3803,
      "紋": 3804,
      "納": 3805,
      "純": 3806,
      "紘": 3807,
      "紙": 3808,
      "級": 3809,
      "素": 3810,
      "紡": 3811,
      "紫": 3812,
      "細": 3813,
      "紹": 3814,
      "紺": 3815,
      "終": 3816,
      "組": 3817,
      "絆": 3818,
      "経": 3819,
      "結": 3820,
      "絡": 3821,
      "給": 3822,
      "統": 3823,
      "絵": 3824,
      "絶": 3825,
      "綁": 3826,
      "經": 3827,
      "継": 3828,
      "続": 3829,
      "綜": 3830,
      "綠": 3831,
      "維": 3832,
      "綯": 3833,
      "綱": 3834,
      "網": 3835,
      "綸": 3836,
      "綺": 3837,
      "綾": 3838,
      "緋": 3839,
      "総": 3840,
      "緑": 3841,
      "緒": 3842,
      "線": 3843,
      "締": 3844,
      "編": 3845,
      "緩": 3846,
      "緬": 3847,
      "緯": 3848,
      "縄": 3849,
      "縊": 3850,
      "縣": 3851,
      "總": 3852,
      "繋": 3853,
      "織": 3854,
      "繹": 3855,
      "繼": 3856,
      "續": 3857,
      "红": 3858,
      "级": 3859,
      "纪": 3860,
      "纯": 3861,
      "纲": 3862,
      "纵": 3863,
      "线": 3864,
      "组": 3865,
      "绅": 3866,
      "细": 3867,
      "终": 3868,
      "绍": 3869,
      "经": 3870,
      "给": 3871,
      "统": 3872,
      "继": 3873,
      "绮": 3874,
      "维": 3875,
      "综": 3876,
      "缽": 3877,
      "网": 3878,
      "罗": 3879,
      "罠": 3880,
      "罪": 3881,
      "置": 3882,
      "罰": 3883,
      "罸": 3884,
      "羅": 3885,
      "羊": 3886,
      "美": 3887,
      "群": 3888,
      "義": 3889,
      "羽": 3890,
      "翁": 3891,
      "習": 3892,
      "翔": 3893,
      "翘": 3894,
      "翠": 3895,
      "翡": 3896,
      "翱": 3897,
      "翹": 3898,
      "翻": 3899,
      "翼": 3900,
      "老": 3901,
      "考": 3902,
      "者": 3903,
      "耆": 3904,
      "而": 3905,
      "耕": 3906,
      "耳": 3907,
      "耶": 3908,
      "耿": 3909,
      "聃": 3910,
      "联": 3911,
      "聖": 3912,
      "聘": 3913,
      "聚": 3914,
      "聞": 3915,
      "聡": 3916,
      "聯": 3917,
      "聰": 3918,
      "聲": 3919,
      "職": 3920,
      "肃": 3921,
      "肉": 3922,
      "肖": 3923,
      "肚": 3924,
      "股": 3925,
      "肥": 3926,
      "肩": 3927,
      "育": 3928,
      "背": 3929,
      "胞": 3930,
      "胠": 3931,
      "胡": 3932,
      "胤": 3933,
      "胴": 3934,
      "胸": 3935,
      "能": 3936,
      "脂": 3937,
      "脇": 3938,
      "脈": 3939,
      "脉": 3940,
      "脚": 3941,
      "脩": 3942,
      "脱": 3943,
      "脳": 3944,
      "腎": 3945,
      "腐": 3946,
      "腰": 3947,
      "腹": 3948,
      "腿": 3949,
      "膀": 3950,
      "膺": 3951,
      "臂": 3952,
      "臘": 3953,
      "臚": 3954,
      "臣": 3955,
      "臨": 3956,
      "自": 3957,
      "臭": 3958,
      "至": 3959,
      "致": 3960,
      "臺": 3961,
      "與": 3962,
      "興": 3963,
      "舍": 3964,
      "舎": 3965,
      "舞": 3966,
      "舟": 3967,
      "航": 3968,
      "船": 3969,
      "艦": 3970,
      "良": 3971,
      "色": 3972,
      "艳": 3973,
      "艶": 3974,
      "艺": 3975,
      "节": 3976,
      "芒": 3977,
      "芙": 3978,
      "芝": 3979,
      "芥": 3980,
      "芦": 3981,
      "芬": 3982,
      "芭": 3983,
      "芮": 3984,
      "芯": 3985,
      "花": 3986,
      "芳": 3987,
      "芸": 3988,
      "芹": 3989,
      "芽": 3990,
      "苏": 3991,
      "苑": 3992,
      "苗": 3993,
      "苣": 3994,
      "若": 3995,
      "英": 3996,
      "苺": 3997,
      "茂": 3998,
      "范": 3999,
      "茅": 4000,
      "茜": 4001,
      "茶": 4002,
      "茸": 4003,
      "草": 4004,
      "荊": 4005,
      "荒": 4006,
      "荔": 4007,
      "荘": 4008,
      "荥": 4009,
      "荪": 4010,
      "荫": 4011,
      "药": 4012,
      "荷": 4013,
      "荻": 4014,
      "荼": 4015,
      "莉": 4016,
      "莊": 4017,
      "莎": 4018,
      "莘": 4019,
      "莞": 4020,
      "莫": 4021,
      "莱": 4022,
      "莲": 4023,
      "莴": 4024,
      "菇": 4025,
      "菉": 4026,
      "菊": 4027,
      "菜": 4028,
      "華": 4029,
      "菱": 4030,
      "菲": 4031,
      "萌": 4032,
      "萍": 4033,
      "萝": 4034,
      "营": 4035,
      "萧": 4036,
      "萨": 4037,
      "萬": 4038,
      "落": 4039,
      "葆": 4040,
      "葉": 4041,
      "著": 4042,
      "葛": 4043,
      "董": 4044,
      "葦": 4045,
      "葫": 4046,
      "葵": 4047,
      "蒙": 4048,
      "蒭": 4049,
      "蒲": 4050,
      "蒼": 4051,
      "蒿": 4052,
      "蓀": 4053,
      "蓑": 4054,
      "蓝": 4055,
      "蓮": 4056,
      "蔡": 4057,
      "蔭": 4058,
      "蔵": 4059,
      "蕃": 4060,
      "蕉": 4061,
      "蕨": 4062,
      "蕩": 4063,
      "蕭": 4064,
      "薇": 4065,
      "薊": 4066,
      "薔": 4067,
      "薙": 4068,
      "薛": 4069,
      "薩": 4070,
      "薫": 4071,
      "薯": 4072,
      "藍": 4073,
      "藏": 4074,
      "藕": 4075,
      "藝": 4076,
      "藤": 4077,
      "藥": 4078,
      "藩": 4079,
      "藻": 4080,
      "蘄": 4081,
      "蘅": 4082,
      "蘇": 4083,
      "蘑": 4084,
      "蘭": 4085,
      "蘿": 4086,
      "虎": 4087,
      "虐": 4088,
      "虔": 4089,
      "處": 4090,
      "虚": 4091,
      "虛": 4092,
      "號": 4093,
      "虫": 4094,
      "虹": 4095,
      "蛇": 4096,
      "蛍": 4097,
      "蛙": 4098,
      "蛭": 4099,
      "蜃": 4100,
      "蜡": 4101,
      "蝉": 4102,
      "蝕": 4103,
      "蝴": 4104,
      "蝶": 4105,
      "融": 4106,
      "螺": 4107,
      "蟲": 4108,
      "蠕": 4109,
      "蠻": 4110,
      "血": 4111,
      "衆": 4112,
      "行": 4113,
      "術": 4114,
      "街": 4115,
      "衙": 4116,
      "衛": 4117,
      "衝": 4118,
      "衡": 4119,
      "衢": 4120,
      "衣": 4121,
      "补": 4122,
      "表": 4123,
      "袁": 4124,
      "袈": 4125,
      "袖": 4126,
      "被": 4127,
      "裁": 4128,
      "裂": 4129,
      "装": 4130,
      "裏": 4131,
      "裔": 4132,
      "裕": 4133,
      "補": 4134,
      "裝": 4135,
      "裟": 4136,
      "裳": 4137,
      "裸": 4138,
      "製": 4139,
      "褒": 4140,
      "襄": 4141,
      "襟": 4142,
      "襲": 4143,
      "西": 4144,
      "要": 4145,
      "覇": 4146,
      "見": 4147,
      "規": 4148,
      "視": 4149,
      "覚": 4150,
      "親": 4151,
      "観": 4152,
      "覺": 4153,
      "觀": 4154,
      "观": 4155,
      "角": 4156,
      "解": 4157,
      "触": 4158,
      "觳": 4159,
      "言": 4160,
      "計": 4161,
      "記": 4162,
      "設": 4163,
      "許": 4164,
      "訳": 4165,
      "証": 4166,
      "詔": 4167,
      "詞": 4168,
      "詠": 4169,
      "試": 4170,
      "詩": 4171,
      "話": 4172,
      "誌": 4173,
      "誐": 4174,
      "誒": 4175,
      "誓": 4176,
      "誕": 4177,
      "誘": 4178,
      "語": 4179,
      "誠": 4180,
      "誡": 4181,
      "誦": 4182,
      "說": 4183,
      "説": 4184,
      "読": 4185,
      "誰": 4186,
      "課": 4187,
      "調": 4188,
      "談": 4189,
      "論": 4190,
      "諭": 4191,
      "諷": 4192,
      "諸": 4193,
      "謀": 4194,
      "謁": 4195,
      "謎": 4196,
      "謙": 4197,
      "講": 4198,
      "謝": 4199,
      "謡": 4200,
      "譌": 4201,
      "識": 4202,
      "譚": 4203,
      "譜": 4204,
      "警": 4205,
      "議": 4206,
      "護": 4207,
      "讀": 4208,
      "變": 4209,
      "讐": 4210,
      "讓": 4211,
      "计": 4212,
      "让": 4213,
      "议": 4214,
      "许": 4215,
      "论": 4216,
      "讼": 4217,
      "诉": 4218,
      "词": 4219,
      "诗": 4220,
      "诚": 4221,
      "话": 4222,
      "语": 4223,
      "诶": 4224,
      "请": 4225,
      "诺": 4226,
      "读": 4227,
      "课": 4228,
      "谁": 4229,
      "谦": 4230,
      "谭": 4231,
      "谷": 4232,
      "豆": 4233,
      "豊": 4234,
      "豌": 4235,
      "豐": 4236,
      "豚": 4237,
      "象": 4238,
      "豪": 4239,
      "豫": 4240,
      "豬": 4241,
      "豹": 4242,
      "貓": 4243,
      "貝": 4244,
      "貞": 4245,
      "負": 4246,
      "財": 4247,
      "貫": 4248,
      "貴": 4249,
      "費": 4250,
      "賀": 4251,
      "資": 4252,
      "賈": 4253,
      "賊": 4254,
      "賓": 4255,
      "賞": 4256,
      "賢": 4257,
      "賦": 4258,
      "質": 4259,
      "購": 4260,
      "贈": 4261,
      "贝": 4262,
      "贞": 4263,
      "财": 4264,
      "贤": 4265,
      "质": 4266,
      "贵": 4267,
      "贺": 4268,
      "贼": 4269,
      "资": 4270,
      "赤": 4271,
      "赭": 4272,
      "走": 4273,
      "赵": 4274,
      "起": 4275,
      "超": 4276,
      "越": 4277,
      "趙": 4278,
      "足": 4279,
      "跆": 4280,
      "跑": 4281,
      "跖": 4282,
      "跟": 4283,
      "跡": 4284,
      "路": 4285,
      "跳": 4286,
      "踊": 4287,
      "踏": 4288,
      "踢": 4289,
      "蹴": 4290,
      "身": 4291,
      "車": 4292,
      "軌": 4293,
      "軍": 4294,
      "軒": 4295,
      "転": 4296,
      "軽": 4297,
      "載": 4298,
      "輔": 4299,
      "輛": 4300,
      "輝": 4301,
      "輪": 4302,
      "輿": 4303,
      "轉": 4304,
      "车": 4305,
      "轩": 4306,
      "转": 4307,
      "辆": 4308,
      "辉": 4309,
      "辛": 4310,
      "辣": 4311,
      "辨": 4312,
      "辭": 4313,
      "辯": 4314,
      "辰": 4315,
      "農": 4316,
      "边": 4317,
      "辺": 4318,
      "辽": 4319,
      "达": 4320,
      "辿": 4321,
      "迄": 4322,
      "迅": 4323,
      "过": 4324,
      "迈": 4325,
      "运": 4326,
      "近": 4327,
      "返": 4328,
      "这": 4329,
      "进": 4330,
      "远": 4331,
      "迦": 4332,
      "迪": 4333,
      "述": 4334,
      "迷": 4335,
      "追": 4336,
      "送": 4337,
      "适": 4338,
      "逆": 4339,
      "选": 4340,
      "這": 4341,
      "通": 4342,
      "造": 4343,
      "逢": 4344,
      "連": 4345,
      "逯": 4346,
      "週": 4347,
      "進": 4348,
      "遁": 4349,
      "遇": 4350,
      "遊": 4351,
      "運": 4352,
      "遍": 4353,
      "過": 4354,
      "道": 4355,
      "達": 4356,
      "遗": 4357,
      "遙": 4358,
      "遜": 4359,
      "遠": 4360,
      "遥": 4361,
      "遮": 4362,
      "選": 4363,
      "遺": 4364,
      "遼": 4365,
      "避": 4366,
      "邁": 4367,
      "還": 4368,
      "邊": 4369,
      "邑": 4370,
      "邓": 4371,
      "那": 4372,
      "邦": 4373,
      "邪": 4374,
      "邱": 4375,
      "邵": 4376,
      "郁": 4377,
      "郊": 4378,
      "郎": 4379,
      "郑": 4380,
      "郛": 4381,
      "郝": 4382,
      "郡": 4383,
      "部": 4384,
      "郭": 4385,
      "郷": 4386,
      "都": 4387,
      "鄧": 4388,
      "鄭": 4389,
      "酈": 4390,
      "酉": 4391,
      "酒": 4392,
      "酔": 4393,
      "酥": 4394,
      "酱": 4395,
      "酷": 4396,
      "酸": 4397,
      "醋": 4398,
      "醒": 4399,
      "醫": 4400,
      "采": 4401,
      "釈": 4402,
      "釋": 4403,
      "里": 4404,
      "重": 4405,
      "野": 4406,
      "量": 4407,
      "金": 4408,
      "釗": 4409,
      "釣": 4410,
      "鈍": 4411,
      "鈴": 4412,
      "鉄": 4413,
      "鉢": 4414,
      "鉦": 4415,
      "鉱": 4416,
      "鉴": 4417,
      "銀": 4418,
      "銃": 4419,
      "銅": 4420,
      "銓": 4421,
      "銖": 4422,
      "銘": 4423,
      "銳": 4424,
      "鋒": 4425,
      "鋪": 4426,
      "鋼": 4427,
      "錄": 4428,
      "錡": 4429,
      "錦": 4430,
      "錬": 4431,
      "録": 4432,
      "鍋": 4433,
      "鍵": 4434,
      "鎖": 4435,
      "鎧": 4436,
      "鎮": 4437,
      "鏡": 4438,
      "鐘": 4439,
      "鐵": 4440,
      "鐸": 4441,
      "鑒": 4442,
      "钊": 4443,
      "钢": 4444,
      "钦": 4445,
      "钱": 4446,
      "铁": 4447,
      "铎": 4448,
      "铜": 4449,
      "铭": 4450,
      "铺": 4451,
      "锡": 4452,
      "键": 4453,
      "镇": 4454,
      "镗": 4455,
      "镜": 4456,
      "長": 4457,
      "长": 4458,
      "門": 4459,
      "閃": 4460,
      "開": 4461,
      "閏": 4462,
      "閒": 4463,
      "間": 4464,
      "関": 4465,
      "閣": 4466,
      "閨": 4467,
      "闇": 4468,
      "闍": 4469,
      "闕": 4470,
      "闘": 4471,
      "關": 4472,
      "门": 4473,
      "问": 4474,
      "闯": 4475,
      "阁": 4476,
      "阪": 4477,
      "防": 4478,
      "阳": 4479,
      "阿": 4480,
      "陀": 4481,
      "附": 4482,
      "际": 4483,
      "陈": 4484,
      "降": 4485,
      "限": 4486,
      "陛": 4487,
      "院": 4488,
      "陣": 4489,
      "除": 4490,
      "陪": 4491,
      "陳": 4492,
      "陵": 4493,
      "陶": 4494,
      "陸": 4495,
      "険": 4496,
      "陽": 4497,
      "隆": 4498,
      "隊": 4499,
      "階": 4500,
      "隔": 4501,
      "隗": 4502,
      "隠": 4503,
      "隣": 4504,
      "隱": 4505,
      "隴": 4506,
      "隸": 4507,
      "隻": 4508,
      "隼": 4509,
      "雀": 4510,
      "雁": 4511,
      "雄": 4512,
      "雅": 4513,
      "集": 4514,
      "雇": 4515,
      "雉": 4516,
      "雎": 4517,
      "雕": 4518,
      "雙": 4519,
      "雛": 4520,
      "雜": 4521,
      "雞": 4522,
      "離": 4523,
      "難": 4524,
      "雨": 4525,
      "雪": 4526,
      "雲": 4527,
      "雳": 4528,
      "零": 4529,
      "雷": 4530,
      "電": 4531,
      "雾": 4532,
      "需": 4533,
      "霆": 4534,
      "震": 4535,
      "霊": 4536,
      "霍": 4537,
      "霖": 4538,
      "霜": 4539,
      "霞": 4540,
      "霧": 4541,
      "霰": 4542,
      "露": 4543,
      "霸": 4544,
      "霹": 4545,
      "靂": 4546,
      "靈": 4547,
      "青": 4548,
      "靖": 4549,
      "静": 4550,
      "非": 4551,
      "靠": 4552,
      "面": 4553,
      "革": 4554,
      "靴": 4555,
      "靼": 4556,
      "鞋": 4557,
      "鞍": 4558,
      "鞠": 4559,
      "韃": 4560,
      "韋": 4561,
      "韓": 4562,
      "韦": 4563,
      "韩": 4564,
      "韭": 4565,
      "音": 4566,
      "韶": 4567,
      "響": 4568,
      "頃": 4569,
      "項": 4570,
      "順": 4571,
      "須": 4572,
      "頌": 4573,
      "頒": 4574,
      "領": 4575,
      "頭": 4576,
      "顆": 4577,
      "題": 4578,
      "額": 4579,
      "顏": 4580,
      "顔": 4581,
      "願": 4582,
      "類": 4583,
      "顯": 4584,
      "项": 4585,
      "顾": 4586,
      "颂": 4587,
      "颊": 4588,
      "颖": 4589,
      "颗": 4590,
      "颜": 4591,
      "風": 4592,
      "颪": 4593,
      "颱": 4594,
      "飄": 4595,
      "风": 4596,
      "飛": 4597,
      "飞": 4598,
      "食": 4599,
      "飯": 4600,
      "飾": 4601,
      "餅": 4602,
      "養": 4603,
      "餓": 4604,
      "館": 4605,
      "饼": 4606,
      "饾": 4607,
      "馆": 4608,
      "馒": 4609,
      "首": 4610,
      "香": 4611,
      "馬": 4612,
      "馮": 4613,
      "駆": 4614,
      "駐": 4615,
      "駒": 4616,
      "駙": 4617,
      "駢": 4618,
      "駿": 4619,
      "騎": 4620,
      "騒": 4621,
      "験": 4622,
      "騭": 4623,
      "騰": 4624,
      "騷": 4625,
      "驁": 4626,
      "驗": 4627,
      "驚": 4628,
      "驤": 4629,
      "马": 4630,
      "驰": 4631,
      "骨": 4632,
      "骸": 4633,
      "髀": 4634,
      "體": 4635,
      "高": 4636,
      "髪": 4637,
      "鬘": 4638,
      "鬥": 4639,
      "鬪": 4640,
      "鬼": 4641,
      "魂": 4642,
      "魄": 4643,
      "魔": 4644,
      "魚": 4645,
      "魯": 4646,
      "鮑": 4647,
      "鮫": 4648,
      "鮮": 4649,
      "鯖": 4650,
      "鯵": 4651,
      "鰐": 4652,
      "鱀": 4653,
      "鱼": 4654,
      "鲁": 4655,
      "鲤": 4656,
      "鳥": 4657,
      "鳩": 4658,
      "鳳": 4659,
      "鳴": 4660,
      "鳶": 4661,
      "鴉": 4662,
      "鴣": 4663,
      "鴨": 4664,
      "鴻": 4665,
      "鵡": 4666,
      "鵩": 4667,
      "鵬": 4668,
      "鶍": 4669,
      "鶴": 4670,
      "鷓": 4671,
      "鷹": 4672,
      "鷺": 4673,
      "鸚": 4674,
      "鸟": 4675,
      "鸡": 4676,
      "鸭": 4677,
      "鸿": 4678,
      "鹅": 4679,
      "鹹": 4680,
      "鹼": 4681,
      "鹽": 4682,
      "鹿": 4683,
      "麗": 4684,
      "麥": 4685,
      "麵": 4686,
      "麻": 4687,
      "麼": 4688,
      "麾": 4689,
      "黃": 4690,
      "黄": 4691,
      "黎": 4692,
      "黑": 4693,
      "黒": 4694,
      "黙": 4695,
      "黛": 4696,
      "黨": 4697,
      "鼉": 4698,
      "鼎": 4699,
      "鼓": 4700,
      "鼠": 4701,
      "鼻": 4702,
      "齉": 4703,
      "齊": 4704,
      "齋": 4705,
      "齐": 4706,
      "龍": 4707,
      "龙": 4708,
      "ꜛ": 4709,
      "ꜜ": 4710,
      "ꜣ": 4711,
      "ꜩ": 4712,
      "ꜫ": 4713,
      "ꜭ": 4714,
      "ꞅ": 4715,
      "ꞎ": 4716,
      "Ʞ": 4717,
      "ꞵ": 4718,
      "ꦂ": 4719,
      "ꦠ": 4720,
      "ꦯ": 4721,
      "ꦲ": 4722,
      "ꦸ": 4723,
      "ꭓ": 4724,
      "가": 4725,
      "간": 4726,
      "강": 4727,
      "개": 4728,
      "거": 4729,
      "건": 4730,
      "경": 4731,
      "계": 4732,
      "고": 4733,
      "공": 4734,
      "관": 4735,
      "광": 4736,
      "구": 4737,
      "국": 4738,
      "권": 4739,
      "귀": 4740,
      "그": 4741,
      "극": 4742,
      "근": 4743,
      "글": 4744,
      "금": 4745,
      "급": 4746,
      "기": 4747,
      "김": 4748,
      "꺼": 4749,
      "껐": 4750,
      "나": 4751,
      "날": 4752,
      "남": 4753,
      "났": 4754,
      "내": 4755,
      "너": 4756,
      "네": 4757,
      "념": 4758,
      "노": 4759,
      "놔": 4760,
      "눈": 4761,
      "늬": 4762,
      "다": 4763,
      "단": 4764,
      "대": 4765,
      "더": 4766,
      "도": 4767,
      "독": 4768,
      "돌": 4769,
      "동": 4770,
      "디": 4771,
      "딱": 4772,
      "라": 4773,
      "람": 4774,
      "래": 4775,
      "런": 4776,
      "렌": 4777,
      "려": 4778,
      "렬": 4779,
      "로": 4780,
      "록": 4781,
      "론": 4782,
      "루": 4783,
      "류": 4784,
      "르": 4785,
      "를": 4786,
      "리": 4787,
      "립": 4788,
      "마": 4789,
      "막": 4790,
      "만": 4791,
      "말": 4792,
      "명": 4793,
      "목": 4794,
      "무": 4795,
      "문": 4796,
      "물": 4797,
      "미": 4798,
      "민": 4799,
      "믿": 4800,
      "바": 4801,
      "박": 4802,
      "방": 4803,
      "백": 4804,
      "뱅": 4805,
      "버": 4806,
      "범": 4807,
      "법": 4808,
      "별": 4809,
      "병": 4810,
      "보": 4811,
      "복": 4812,
      "봐": 4813,
      "부": 4814,
      "불": 4815,
      "붉": 4816,
      "빅": 4817,
      "빙": 4818,
      "빤": 4819,
      "뿐": 4820,
      "사": 4821,
      "산": 4822,
      "살": 4823,
      "삼": 4824,
      "삿": 4825,
      "상": 4826,
      "새": 4827,
      "색": 4828,
      "서": 4829,
      "성": 4830,
      "센": 4831,
      "소": 4832,
      "쇼": 4833,
      "수": 4834,
      "순": 4835,
      "술": 4836,
      "숫": 4837,
      "스": 4838,
      "시": 4839,
      "식": 4840,
      "신": 4841,
      "실": 4842,
      "쌤": 4843,
      "아": 4844,
      "안": 4845,
      "알": 4846,
      "암": 4847,
      "앙": 4848,
      "애": 4849,
      "앤": 4850,
      "야": 4851,
      "양": 4852,
      "어": 4853,
      "에": 4854,
      "엔": 4855,
      "연": 4856,
      "영": 4857,
      "예": 4858,
      "오": 4859,
      "온": 4860,
      "왜": 4861,
      "용": 4862,
      "운": 4863,
      "울": 4864,
      "원": 4865,
      "위": 4866,
      "유": 4867,
      "은": 4868,
      "을": 4869,
      "음": 4870,
      "의": 4871,
      "이": 4872,
      "인": 4873,
      "일": 4874,
      "자": 4875,
      "장": 4876,
      "재": 4877,
      "적": 4878,
      "전": 4879,
      "점": 4880,
      "정": 4881,
      "제": 4882,
      "조": 4883,
      "종": 4884,
      "좋": 4885,
      "주": 4886,
      "줄": 4887,
      "중": 4888,
      "지": 4889,
      "진": 4890,
      "집": 4891,
      "짓": 4892,
      "징": 4893,
      "차": 4894,
      "천": 4895,
      "청": 4896,
      "체": 4897,
      "쳐": 4898,
      "초": 4899,
      "춘": 4900,
      "충": 4901,
      "치": 4902,
      "커": 4903,
      "코": 4904,
      "킨": 4905,
      "타": 4906,
      "태": 4907,
      "터": 4908,
      "퇴": 4909,
      "투": 4910,
      "트": 4911,
      "특": 4912,
      "파": 4913,
      "판": 4914,
      "퍼": 4915,
      "평": 4916,
      "표": 4917,
      "풍": 4918,
      "피": 4919,
      "하": 4920,
      "학": 4921,
      "한": 4922,
      "합": 4923,
      "해": 4924,
      "행": 4925,
      "향": 4926,
      "허": 4927,
      "헬": 4928,
      "호": 4929,
      "혹": 4930,
      "홀": 4931,
      "화": 4932,
      "회": 4933,
      "후": 4934,
      "희": 4935,
      "ﬀ": 4936,
      "ﬁ": 4937,
      "ﬂ": 4938,
      "ﮭ": 4939,
      "ﮮ": 4940,
      "ﷲ": 4941,
      "ﷺ": 4942,
      "️": 4943,
      "︠": 4944,
      "︡": 4945,
      "ﺒ": 4946,
      "ﻉ": 4947,
      "ﻋ": 4948,
      "ﻔ": 4949,
      "ﻴ": 4950,
      "﻿": 4951,
      "！": 4952,
      "％": 4953,
      "＆": 4954,
      "（": 4955,
      "）": 4956,
      "，": 4957,
      "－": 4958,
      "／": 4959,
      "１": 4960,
      "２": 4961,
      "３": 4962,
      "４": 4963,
      "６": 4964,
      "：": 4965,
      "＜": 4966,
      "＝": 4967,
      "＞": 4968,
      "？": 4969,
      "Ａ": 4970,
      "Ｃ": 4971,
      "Ｄ": 4972,
      "Ｇ": 4973,
      "Ｉ": 4974,
      "Ｊ": 4975,
      "Ｌ": 4976,
      "Ｍ": 4977,
      "Ｐ": 4978,
      "Ｒ": 4979,
      "Ｘ": 4980,
      "［": 4981,
      "］": 4982,
      "｜": 4983,
      "～": 4984,
      "｢": 4985,
      "｣": 4986,
      "･": 4987,
      "ｰ": 4988,
      "￥": 4989,
      "�": 4990,
      "𐀁": 4991,
      "𐀈": 4992,
      "𐀫": 4993,
      "𐎠": 4994,
      "𐎢": 4995,
      "𐎭": 4996,
      "𐎰": 4997,
      "𐎹": 4998,
      "𐎺": 4999,
      "𐎼": 5000,
      "𐏁": 5001,
      "𐭃": 5002,
      "𐭉": 5003,
      "𐭓": 5004,
      "𐭕": 5005,
      "𒀯": 5006,
      "𒀳": 5007,
      "𝕄": 5008,
      "𝕡": 5009,
      "🖕": 5010,
      "##e": 5011,
      "##l": 5012,
      "##i": 5013,
      "##t": 5014,
      "##a": 5015,
      "##h": 5016,
      "##r": 5017,
      "##o": 5018,
      "##n": 5019,
      "##p": 5020,
      "##g": 5021,
      "##s": 5022,
      "##m": 5023,
      "##b": 5024,
      "##c": 5025,
      "##ッ": 5026,
      "##コ": 5027,
      "##ρ": 5028,
      "##α": 5029,
      "##χ": 5030,
      "##ώ": 5031,
      "##ν": 5032,
      "##ω": 5033,
      "##y": 5034,
      "##d": 5035,
      "##f": 5036,
      "##ǎ": 5037,
      "##L": 5038,
      "##k": 5039,
      "##u": 5040,
      "##é": 5041,
      "##z": 5042,
      "##w": 5043,
      "##x": 5044,
      "##v": 5045,
      "##í": 5046,
      "##S": 5047,
      "##き": 5048,
      "##日": 5049,
      "##の": 5050,
      "##弘": 5051,
      "##法": 5052,
      "##大": 5053,
      "##師": 5054,
      "##q": 5055,
      "##9": 5056,
      "##6": 5057,
      "##1": 5058,
      "##D": 5059,
      "##P": 5060,
      "##2": 5061,
      "##ʲ": 5062,
      "##ɜ": 5063,
      "##0": 5064,
      "##4": 5065,
      "##E": 5066,
      "##T": 5067,
      "##O": 5068,
      "##B": 5069,
      "##8": 5070,
      "##æ": 5071,
      "##3": 5072,
      "##7": 5073,
      "##X": 5074,
      "##F": 5075,
      "##A": 5076,
      "##G": 5077,
      "##ா": 5078,
      "##ல": 5079,
      "##M": 5080,
      "##ム": 5081,
      "##パ": 5082,
      "##ネ": 5083,
      "##ル": 5084,
      "##ラ": 5085,
      "##森": 5086,
      "##V": 5087,
      "##R": 5088,
      "##ず": 5089,
      "##ま": 5090,
      "##j": 5091,
      "##ē": 5092,
      "##I": 5093,
      "##N": 5094,
      "##C": 5095,
      "##ö": 5096,
      "##ǐ": 5097,
      "##ì": 5098,
      "##þ": 5099,
      "##ι": 5100,
      "##λ": 5101,
      "##ᾶ": 5102,
      "##τ": 5103,
      "##ο": 5104,
      "##ς": 5105,
      "##Y": 5106,
      "##5": 5107,
      "##ï": 5108,
      "##ư": 5109,
      "##ơ": 5110,
      "##J": 5111,
      "##ी": 5112,
      "##न": 5113,
      "##ā": 5114,
      "##ã": 5115,
      "##ð": 5116,
      "##ば": 5117,
      "##さ": 5118,
      "##H": 5119,
      "##ó": 5120,
      "##ダ": 5121,
      "##伝": 5122,
      "##説": 5123,
      "##õ": 5124,
      "##а": 5125,
      "##р": 5126,
      "##д": 5127,
      "##K": 5128,
      "##ü": 5129,
      "##ō": 5130,
      "##W": 5131,
      "##U": 5132,
      "##ཁ": 5133,
      "##འ": 5134,
      "##ु": 5135,
      "##द": 5136,
      "##य": 5137,
      "##म": 5138,
      "##š": 5139,
      "##ַ": 5140,
      "##ת": 5141,
      "##ְ": 5142,
      "##ּ": 5143,
      "##ע": 5144,
      "##ו": 5145,
      "##פ": 5146,
      "##ָ": 5147,
      "##ה": 5148,
      "##č": 5149,
      "##転": 5150,
      "##セ": 5151,
      "##レ": 5152,
      "##ナ": 5153,
      "##ー": 5154,
      "##ド": 5155,
      "##ø": 5156,
      "##ž": 5157,
      "##à": 5158,
      "##ä": 5159,
      "##đ": 5160,
      "##𐎰": 5161,
      "##𐎢": 5162,
      "##𐎼": 5163,
      "##𐎠": 5164,
      "##叢": 5165,
      "##雲": 5166,
      "##ɪ": 5167,
      "##ŋ": 5168,
      "##デ": 5169,
      "##ィ": 5170,
      "##司": 5171,
      "##馬": 5172,
      "##ñ": 5173,
      "##ẽ": 5174,
      "##ú": 5175,
      "##ć": 5176,
      "##村": 5177,
      "##υ": 5178,
      "##κ": 5179,
      "##ί": 5180,
      "##â": 5181,
      "##и": 5182,
      "##й": 5183,
      "##ł": 5184,
      "##位": 5185,
      "##词": 5186,
      "##極": 5187,
      "##圖": 5188,
      "##ë": 5189,
      "##á": 5190,
      "##É": 5191,
      "##ྡ": 5192,
      "##ོ": 5193,
      "##ན": 5194,
      "##མ": 5195,
      "##å": 5196,
      "##투": 5197,
      "##œ": 5198,
      "##Z": 5199,
      "##ī": 5200,
      "##ə": 5201,
      "##銀": 5202,
      "##迅": 5203,
      "##雷": 5204,
      "##ß": 5205,
      "##θ": 5206,
      "##Q": 5207,
      "##民": 5208,
      "##中": 5209,
      "##学": 5210,
      "##ุ": 5211,
      "##ท": 5212,
      "##ธ": 5213,
      "##ศ": 5214,
      "##า": 5215,
      "##ส": 5216,
      "##ต": 5217,
      "##ร": 5218,
      "##武": 5219,
      "##館": 5220,
      "##е": 5221,
      "##в": 5222,
      "##у": 5223,
      "##ш": 5224,
      "##к": 5225,
      "##н": 5226,
      "##ū": 5227,
      "##文": 5228,
      "##程": 5229,
      "##ή": 5230,
      "##雄": 5231,
      "##î": 5232,
      "##ɛ": 5233,
      "##ý": 5234,
      "##ô": 5235,
      "##ˈ": 5236,
      "##ɑ": 5237,
      "##ː": 5238,
      "##ᵻ": 5239,
      "##家": 5240,
      "##星": 5241,
      "##с": 5242,
      "##т": 5243,
      "##ı": 5244,
      "##社": 5245,
      "##稷": 5246,
      "##ţ": 5247,
      "##ė": 5248,
      "##リ": 5249,
      "##ピ": 5250,
      "##ン": 5251,
      "##グ": 5252,
      "##ス": 5253,
      "##π": 5254,
      "##σ": 5255,
      "##ό": 5256,
      "##ק": 5257,
      "##ר": 5258,
      "##ב": 5259,
      "##ɔ": 5260,
      "##о": 5261,
      "##м": 5262,
      "##è": 5263,
      "##議": 5264,
      "##院": 5265,
      "##ʂ": 5266,
      "##メ": 5267,
      "##ベ": 5268,
      "##ニ": 5269,
      "##テ": 5270,
      "##タ": 5271,
      "##ケ": 5272,
      "##ę": 5273,
      "##ε": 5274,
      "##μ": 5275,
      "##ῆ": 5276,
      "##Α": 5277,
      "##Ν": 5278,
      "##Τ": 5279,
      "##ç": 5280,
      "##ʁ": 5281,
      "##ɐ": 5282,
      "##희": 5283,
      "##ξ": 5284,
      "##ŏ": 5285,
      "##ă": 5286,
      "##子": 5287,
      "##が": 5288,
      "##僕": 5289,
      "##に": 5290,
      "##く": 5291,
      "##れ": 5292,
      "##た": 5293,
      "##も": 5294,
      "##з": 5295,
      "##ј": 5296,
      "##ń": 5297,
      "##ช": 5298,
      "##ี": 5299,
      "##ว": 5300,
      "##ิ": 5301,
      "##視": 5302,
      "##官": 5303,
      "##ж": 5304,
      "##ț": 5305,
      "##ɾ": 5306,
      "##ỏ": 5307,
      "##ś": 5308,
      "##ạ": 5309,
      "##田": 5310,
      "##ユ": 5311,
      "##ウ": 5312,
      "##ą": 5313,
      "##ˠ": 5314,
      "##Υ": 5315,
      "##ر": 5316,
      "##氏": 5317,
      "##通": 5318,
      "##수": 5319,
      "##진": 5320,
      "##オ": 5321,
      "##サ": 5322,
      "##イ": 5323,
      "##は": 5324,
      "##バ": 5325,
      "##色": 5326,
      "##生": 5327,
      "##劇": 5328,
      "##場": 5329,
      "##欽": 5330,
      "##र": 5331,
      "##ा": 5332,
      "##घ": 5333,
      "##व": 5334,
      "##भ": 5335,
      "##ʰ": 5336,
      "##क": 5337,
      "##े": 5338,
      "##ष": 5339,
      "##质": 5340,
      "##蝶": 5341,
      "##ố": 5342,
      "##γ": 5343,
      "##έ": 5344,
      "##ἴ": 5345,
      "##δ": 5346,
      "##л": 5347,
      "##ь": 5348,
      "##ê": 5349,
      "##骨": 5350,
      "##茶": 5351,
      "##永": 5352,
      "##成": 5353,
      "##名": 5354,
      "##明": 5355,
      "##門": 5356,
      "##م": 5357,
      "##饼": 5358,
      "##興": 5359,
      "##報": 5360,
      "##ż": 5361,
      "##ữ": 5362,
      "##ʻ": 5363,
      "##η": 5364,
      "##і": 5365,
      "##ч": 5366,
      "##ح": 5367,
      "##ṭ": 5368,
      "##術": 5369,
      "##公": 5370,
      "##φ": 5371,
      "##ά": 5372,
      "##士": 5373,
      "##敬": 5374,
      "##ù": 5375,
      "##来": 5376,
      "##ガ": 5377,
      "##ジ": 5378,
      "##ェ": 5379,
      "##ト": 5380,
      "##研": 5381,
      "##究": 5382,
      "##所": 5383,
      "##敦": 5384,
      "##ˤ": 5385,
      "##해": 5386,
      "##ت": 5387,
      "##ق": 5388,
      "##س": 5389,
      "##ي": 5390,
      "##一": 5391,
      "##个": 5392,
      "##人": 5393,
      "##ṣ": 5394,
      "##ʊ": 5395,
      "##ḍ": 5396,
      "##ψ": 5397,
      "##Ω": 5398,
      "##И": 5399,
      "##Σ": 5400,
      "##殊": 5401,
      "##殿": 5402,
      "##غ": 5403,
      "##ḷ": 5404,
      "##ῶ": 5405,
      "##ъ": 5406,
      "##音": 5407,
      "##ゃ": 5408,
      "##こ": 5409,
      "##天": 5410,
      "##つ": 5411,
      "##か": 5412,
      "##咲": 5413,
      "##光": 5414,
      "##花": 5415,
      "##ɡ": 5416,
      "##御": 5417,
      "##会": 5418,
      "##ħ": 5419,
      "##ʏ": 5420,
      "##근": 5421,
      "##리": 5422,
      "##ὖ": 5423,
      "##取": 5424,
      "##型": 5425,
      "##戦": 5426,
      "##艦": 5427,
      "##ج": 5428,
      "##و": 5429,
      "##ع": 5430,
      "##ة": 5431,
      "##字": 5432,
      "##ṛ": 5433,
      "##ʿ": 5434,
      "##მ": 5435,
      "##ი": 5436,
      "##დ": 5437,
      "##ა": 5438,
      "##β": 5439,
      "##د": 5440,
      "##ا": 5441,
      "##ن": 5442,
      "##ʃ": 5443,
      "##ș": 5444,
      "##教": 5445,
      "##授": 5446,
      "##ロ": 5447,
      "##フ": 5448,
      "##里": 5449,
      "##ğ": 5450,
      "##準": 5451,
      "##備": 5452,
      "##第": 5453,
      "##着": 5454,
      "##作": 5455,
      "##業": 5456,
      "##建": 5457,
      "##計": 5458,
      "##画": 5459,
      "##山": 5460,
      "##掛": 5461,
      "##け": 5462,
      "##州": 5463,
      "##བ": 5464,
      "##ྲ": 5465,
      "##ུ": 5466,
      "##ག": 5467,
      "##რ": 5468,
      "##ʒ": 5469,
      "##蔭": 5470,
      "##穂": 5471,
      "##鳥": 5472,
      "##ズ": 5473,
      "##ミ": 5474,
      "##ノ": 5475,
      "##ア": 5476,
      "##シ": 5477,
      "##合": 5478,
      "##住": 5479,
      "##宅": 5480,
      "##物": 5481,
      "##語": 5482,
      "##ل": 5483,
      "##ض": 5484,
      "##ب": 5485,
      "##砂": 5486,
      "##ď": 5487,
      "##石": 5488,
      "##楼": 5489,
      "##エ": 5490,
      "##る": 5491,
      "##空": 5492,
      "##ソ": 5493,
      "##µ": 5494,
      "##ो": 5495,
      "##ह": 5496,
      "##ि": 5497,
      "##ュ": 5498,
      "##ɒ": 5499,
      "##ǹ": 5500,
      "##ǚ": 5501,
      "##э": 5502,
      "##ệ": 5503,
      "##具": 5504,
      "##ʀ": 5505,
      "##り": 5506,
      "##向": 5507,
      "##う": 5508,
      "##п": 5509,
      "##沢": 5510,
      "##未": 5511,
      "##夜": 5512,
      "##ះ": 5513,
      "##ប": 5514,
      "##រ": 5515,
      "##ម": 5516,
      "##ត": 5517,
      "##ន": 5518,
      "##ក": 5519,
      "##ោ": 5520,
      "##ដ": 5521,
      "##Ρ": 5522,
      "##Ε": 5523,
      "##Ι": 5524,
      "##Ο": 5525,
      "##輪": 5526,
      "##寺": 5527,
      "##ण": 5528,
      "##ň": 5529,
      "##හ": 5530,
      "##喇": 5531,
      "##印": 5532,
      "##拳": 5533,
      "##剣": 5534,
      "##鐘": 5535,
      "##ş": 5536,
      "##י": 5537,
      "##ס": 5538,
      "##צ": 5539,
      "##ص": 5540,
      "##緩": 5541,
      "##ャ": 5542,
      "##ʔ": 5543,
      "##ɣ": 5544,
      "##ك": 5545,
      "##ṇ": 5546,
      "##ク": 5547,
      "##マ": 5548,
      "##ワ": 5549,
      "##ὰ": 5550,
      "##ি": 5551,
      "##প": 5552,
      "##ু": 5553,
      "##র": 5554,
      "##া": 5555,
      "##አ": 5556,
      "##ዘ": 5557,
      "##ሐ": 5558,
      "##በ": 5559,
      "##金": 5560,
      "##德": 5561,
      "##ぶ": 5562,
      "##ḥ": 5563,
      "##ʾ": 5564,
      "##呪": 5565,
      "##い": 5566,
      "##雪": 5567,
      "##降": 5568,
      "##カ": 5569,
      "##チ": 5570,
      "##と": 5571,
      "##っ": 5572,
      "##し": 5573,
      "##ょ": 5574,
      "##목": 5575,
      "##적": 5576,
      "##법": 5577,
      "##인": 5578,
      "##ʌ": 5579,
      "##ˌ": 5580,
      "##ד": 5581,
      "##恩": 5582,
      "##鬼": 5583,
      "##坊": 5584,
      "##प": 5585,
      "##េ": 5586,
      "##ច": 5587,
      "##ឪ": 5588,
      "##愁": 5589,
      "##詩": 5590,
      "##я": 5591,
      "##を": 5592,
      "##へ": 5593,
      "##な": 5594,
      "##む": 5595,
      "##朝": 5596,
      "##哉": 5597,
      "##车": 5598,
      "##号": 5599,
      "##ц": 5600,
      "##х": 5601,
      "##ύ": 5602,
      "##野": 5603,
      "##ር": 5604,
      "##.": 5605,
      "##ò": 5606,
      "##眼": 5607,
      "##Ⅱ": 5608,
      "##磨": 5609,
      "##ん": 5610,
      "##旦": 5611,
      "##Ξ": 5612,
      "##Η": 5613,
      "##Κ": 5614,
      "##स": 5615,
      "##ギ": 5616,
      "##ध": 5617,
      "##ら": 5618,
      "##ど": 5619,
      "##ɯ": 5620,
      "##電": 5621,
      "##波": 5622,
      "##局": 5623,
      "##ರ": 5624,
      "##پ": 5625,
      "##ی": 5626,
      "##ش": 5627,
      "##ⵉ": 5628,
      "##ⵣ": 5629,
      "##ⴻ": 5630,
      "##ⵔ": 5631,
      "##ⴼ": 5632,
      "##ⴰ": 5633,
      "##ⵏ": 5634,
      "##ী": 5635,
      "##ভ": 5636,
      "##ূ": 5637,
      "##ম": 5638,
      "##ự": 5639,
      "##ദ": 5640,
      "##上": 5641,
      "##げ": 5642,
      "##て": 5643,
      "##ご": 5644,
      "##遁": 5645,
      "##申": 5646,
      "##ம": 5647,
      "##த": 5648,
      "##ு": 5649,
      "##笠": 5650,
      "##ォ": 5651,
      "##û": 5652,
      "##ě": 5653,
      "##ỗ": 5654,
      "##ɫ": 5655,
      "##海": 5656,
      "##桑": 5657,
      "##ћ": 5658,
      "##堆": 5659,
      "##拉": 5660,
      "##口": 5661,
      "##ח": 5662,
      "##ֲ": 5663,
      "##ы": 5664,
      "##舞": 5665,
      "##壷": 5666,
      "##ɲ": 5667,
      "##棺": 5668,
      "##琮": 5669,
      "##ʷ": 5670,
      "##耳": 5671,
      "##ত": 5672,
      "##西": 5673,
      "##熊": 5674,
      "##貓": 5675,
      "##增": 5676,
      "##霆": 5677,
      "##賀": 5678,
      "##ա": 5679,
      "##ղ": 5680,
      "##ք": 5681,
      "##ց": 5682,
      "##ի": 5683,
      "##飛": 5684,
      "##行": 5685,
      "##船": 5686,
      "##投": 5687,
      "##票": 5688,
      "##促": 5689,
      "##进": 5690,
      "##थ": 5691,
      "##श": 5692,
      "##त": 5693,
      "##ե": 5694,
      "##ր": 5695,
      "##մ": 5696,
      "##վ": 5697,
      "##ո": 5698,
      "##ն": 5699,
      "##ɕ": 5700,
      "##本": 5701,
      "##航": 5702,
      "##株": 5703,
      "##式": 5704,
      "##ű": 5705,
      "##ǔ": 5706,
      "##ị": 5707,
      "##冬": 5708,
      "##ذ": 5709,
      "##ه": 5710,
      "##荒": 5711,
      "##神": 5712,
      "##方": 5713,
      "##ち": 5714,
      "##槻": 5715,
      "##ল": 5716,
      "##ས": 5717,
      "##姫": 5718,
      "##間": 5719,
      "##王": 5720,
      "##ồ": 5721,
      "##咫": 5722,
      "##鏡": 5723,
      "##ĭ": 5724,
      "##キ": 5725,
      "##思": 5726,
      "##克": 5727,
      "##ŭ": 5728,
      "##定": 5729,
      "##版": 5730,
      "##ể": 5731,
      "##分": 5732,
      "##事": 5733,
      "##件": 5734,
      "##平": 5735,
      "##集": 5736,
      "##郎": 5737,
      "##จ": 5738,
      "##ั": 5739,
      "##ก": 5740,
      "##ม": 5741,
      "##ห": 5742,
      "##ป": 5743,
      "##양": 5744,
      "##ヤ": 5745,
      "##ļ": 5746,
      "##春": 5747,
      "##刻": 5748,
      "##食": 5749,
      "##べ": 5750,
      "##月": 5751,
      "##真": 5752,
      "##刷": 5753,
      "##表": 5754,
      "##現": 5755,
      "##乃": 5756,
      "##颖": 5757,
      "##ש": 5758,
      "##ׁ": 5759,
      "##б": 5760,
      "##緬": 5761,
      "##立": 5762,
      "##女": 5763,
      "##園": 5764,
      "##ζ": 5765,
      "##ف": 5766,
      "##ث": 5767,
      "##ใ": 5768,
      "##น": 5769,
      "##ế": 5770,
      "##İ": 5771,
      "##А": 5772,
      "##Р": 5773,
      "##К": 5774,
      "##О": 5775,
      "##ľ": 5776,
      "##ं": 5777,
      "##終": 5778,
      "##焉": 5779,
      "##Á": 5780,
      "##鱼": 5781,
      "##县": 5782,
      "##你": 5783,
      "##却": 5784,
      "##总": 5785,
      "##是": 5786,
      "##笑": 5787,
      "##我": 5788,
      "##有": 5789,
      "##太": 5790,
      "##阳": 5791,
      "##鼓": 5792,
      "##ל": 5793,
      "##手": 5794,
      "##的": 5795,
      "##请": 5796,
      "##书": 5797,
      "##ァ": 5798,
      "##素": 5799,
      "##贞": 5800,
      "##树": 5801,
      "##ਲ": 5802,
      "##ਹ": 5803,
      "##ੁ": 5804,
      "##ֵ": 5805,
      "##ֶ": 5806,
      "##ǒ": 5807,
      "##ʋ": 5808,
      "##ř": 5809,
      "##ะ": 5810,
      "##ู": 5811,
      "##บ": 5812,
      "##ง": 5813,
      "##奈": 5814,
      "##ツ": 5815,
      "##島": 5816,
      "##ా": 5817,
      "##భ": 5818,
      "##ై": 5819,
      "##溪": 5820,
      "##路": 5821,
      "##փ": 5822,
      "##խ": 5823,
      "##կ": 5824,
      "##羽": 5825,
      "##部": 5826,
      "##藩": 5827,
      "##𐎹": 5828,
      "##𐏁": 5829,
      "##ू": 5830,
      "##め": 5831,
      "##灣": 5832,
      "##原": 5833,
      "##豐": 5834,
      "##遠": 5835,
      "##層": 5836,
      "##崖": 5837,
      "##א": 5838,
      "##年": 5839,
      "##打": 5840,
      "##火": 5841,
      "##ķ": 5842,
      "##ƒ": 5843,
      "##ែ": 5844,
      "##វ": 5845,
      "##ៀ": 5846,
      "##彩": 5847,
      "##云": 5848,
      "##แ": 5849,
      "##ล": 5850,
      "##ด": 5851,
      "##ਾ": 5852,
      "##ហ": 5853,
      "##ា": 5854,
      "##ី": 5855,
      "##み": 5856,
      "##じ": 5857,
      "##ゅ": 5858,
      "##Θ": 5859,
      "##段": 5860,
      "##突": 5861,
      "##似": 5862,
      "##ю": 5863,
      "##ф": 5864,
      "##選": 5865,
      "##줄": 5866,
      "##絶": 5867,
      "##叫": 5868,
      "##յ": 5869,
      "##ờ": 5870,
      "##厦": 5871,
      "##剑": 5872,
      "##尾": 5873,
      "##獣": 5874,
      "##螺": 5875,
      "##旋": 5876,
      "##裏": 5877,
      "##制": 5878,
      "##度": 5879,
      "##調": 5880,
      "##査": 5881,
      "##զ": 5882,
      "##ս": 5883,
      "##ւ": 5884,
      "##杯": 5885,
      "##港": 5886,
      "##華": 5887,
      "##ុ": 5888,
      "##ស": 5889,
      "##兰": 5890,
      "##站": 5891,
      "##소": 5892,
      "##행": 5893,
      "##성": 5894,
      "##ῖ": 5895,
      "##马": 5896,
      "##造": 5897,
      "##柳": 5898,
      "##ռ": 5899,
      "##閣": 5900,
      "##総": 5901,
      "##理": 5902,
      "##臣": 5903,
      "##أ": 5904,
      "##ز": 5905,
      "##甫": 5906,
      "##冉": 5907,
      "##เ": 5908,
      "##ค": 5909,
      "##ื": 5910,
      "##梅": 5911,
      "##珠": 5912,
      "##ṙ": 5913,
      "##ड": 5914,
      "##ग": 5915,
      "##ɨ": 5916,
      "##อ": 5917,
      "##ษ": 5918,
      "##ฐ": 5919,
      "##ִ": 5920,
      "##Ö": 5921,
      "##ⲩ": 5922,
      "##ⲥ": 5923,
      "##ⲧ": 5924,
      "##ⲁ": 5925,
      "##ⲱ": 5926,
      "##ⲛ": 5927,
      "##º": 5928,
      "##ゴ": 5929,
      "##ِ": 5930,
      "##ّ": 5931,
      "##ْ": 5932,
      "##َ": 5933,
      "##ى": 5934,
      "##病": 5935,
      "##驗": 5936,
      "##政": 5937,
      "##体": 5938,
      "##佳": 5939,
      "##で": 5940,
      "##ط": 5941,
      "##窟": 5942,
      "##ョ": 5943,
      "##プ": 5944,
      "##长": 5945,
      "##化": 5946,
      "##南": 5947,
      "##新": 5948,
      "##市": 5949,
      "##茸": 5950,
      "##ộ": 5951,
      "##下": 5952,
      "##ே": 5953,
      "##ச": 5954,
      "##வ": 5955,
      "##ர": 5956,
      "##ʕ": 5957,
      "##ף": 5958,
      "##包": 5959,
      "##糖": 5960,
      "##見": 5961,
      "##塔": 5962,
      "##ئ": 5963,
      "##涼": 5964,
      "##ἱ": 5965,
      "##ὸ": 5966,
      "##ё": 5967,
      "##г": 5968,
      "##少": 5969,
      "##ข": 5970,
      "##ल": 5971,
      "##话": 5972,
      "##ᛠ": 5973,
      "##ᚷ": 5974,
      "##ᚾ": 5975,
      "##ᚩ": 5976,
      "##ᚦ": 5977,
      "##ם": 5978,
      "##品": 5979,
      "##秀": 5980,
      "##ṅ": 5981,
      "##正": 5982,
      "##妖": 5983,
      "##刀": 5984,
      "##ɟ": 5985,
      "##ő": 5986,
      "##ź": 5987,
      "##庫": 5988,
      "##区": 5989,
      "##嫁": 5990,
      "##清": 5991,
      "##ǝ": 5992,
      "##Ë": 5993,
      "##ĵ": 5994,
      "##都": 5995,
      "##不": 5996,
      "##能": 5997,
      "##房": 5998,
      "##卿": 5999,
      "##艶": 6000,
      "##詞": 6001,
      "##絵": 6002,
      "##巻": 6003,
      "##ி": 6004,
      "##ங": 6005,
      "##白": 6006,
      "##編": 6007,
      "##ǫ": 6008,
      "##料": 6009,
      "##室": 6010,
      "##お": 6011,
      "##連": 6012,
      "##続": 6013,
      "##殺": 6014,
      "##界": 6015,
      "##童": 6016,
      "##話": 6017,
      "##客": 6018,
      "##竹": 6019,
      "##齋": 6020,
      "##箋": 6021,
      "##譜": 6022,
      "##ﬂ": 6023,
      "##険": 6024,
      "##者": 6025,
      "##君": 6026,
      "##願": 6027,
      "##韶": 6028,
      "##ả": 6029,
      "##գ": 6030,
      "##ო": 6031,
      "##ე": 6032,
      "##ლ": 6033,
      "##変": 6034,
      "##わ": 6035,
      "##七": 6036,
      "##水": 6037,
      "##災": 6038,
      "##節": 6039,
      "##郷": 6040,
      "##ܲ": 6041,
      "##ܠ": 6042,
      "##ܵ": 6043,
      "##ܗ": 6044,
      "##ܐ": 6045,
      "##С": 6046,
      "##Ф": 6047,
      "##ُ": 6048,
      "##曲": 6049,
      "##ំ": 6050,
      "##ぼ": 6051,
      "##満": 6052,
      "##足": 6053,
      "##ȟ": 6054,
      "##خ": 6055,
      "##寄": 6056,
      "##せ": 6057,
      "##լ": 6058,
      "##培": 6059,
      "##养": 6060,
      "##纪": 6061,
      "##实": 6062,
      "##Ā": 6063,
      "##弦": 6064,
      "##葉": 6065,
      "##ย": 6066,
      "##魔": 6067,
      "##々": 6068,
      "##ブ": 6069,
      "##ハ": 6070,
      "##装": 6071,
      "##甲": 6072,
      "##巡": 6073,
      "##洋": 6074,
      "##宿": 6075,
      "##跡": 6076,
      "##丑": 6077,
      "##ᡝ": 6078,
      "##ᠴ": 6079,
      "##ᡵ": 6080,
      "##利": 6081,
      "##錡": 6082,
      "##ų": 6083,
      "##國": 6084,
      "##無": 6085,
      "##双": 6086,
      "##彼": 6087,
      "##歌": 6088,
      "##譚": 6089,
      "##撃": 6090,
      "##ɵ": 6091,
      "##卦": 6092,
      "##屬": 6093,
      "##ậ": 6094,
      "##如": 6095,
      "##屋": 6096,
      "##十": 6097,
      "##六": 6098,
      "##銃": 6099,
      "##ȳ": 6100,
      "##陽": 6101,
      "##主": 6102,
      "##菊": 6103,
      "##어": 6104,
      "##래": 6105,
      "##魚": 6106,
      "##狼": 6107,
      "##դ": 6108,
      "##岐": 6109,
      "##賦": 6110,
      "##ү": 6111,
      "##魂": 6112,
      "##ビ": 6113,
      "##放": 6114,
      "##送": 6115,
      "##羅": 6116,
      "##道": 6117,
      "##皇": 6118,
      "##帝": 6119,
      "##摩": 6120,
      "##異": 6121,
      "##記": 6122,
      "##康": 6123,
      "##彦": 6124,
      "##史": 6125,
      "##苑": 6126,
      "##だ": 6127,
      "##世": 6128,
      "##線": 6129,
      "##伏": 6130,
      "##景": 6131,
      "##遊": 6132,
      "##育": 6133,
      "##孩": 6134,
      "##需": 6135,
      "##要": 6136,
      "##智": 6137,
      "##慧": 6138,
      "##宙": 6139,
      "##ྟ": 6140,
      "##江": 6141,
      "##ֹ": 6142,
      "##ὺ": 6143,
      "##ṃ": 6144,
      "##상": 6145,
      "##렬": 6146,
      "##-": 6147,
      "##仙": 6148,
      "##地": 6149,
      "##震": 6150,
      "##樂": 6151,
      "##象": 6152,
      "##陣": 6153,
      "##国": 6154,
      "##彬": 6155,
      "##菜": 6156,
      "##ט": 6157,
      "##태": 6158,
      "##권": 6159,
      "##도": 6160,
      "##ǵ": 6161,
      "##מ": 6162,
      "##ן": 6163,
      "##Č": 6164,
      "##ক": 6165,
      "##พ": 6166,
      "##ˀ": 6167,
      "##ץ": 6168,
      "##ौ": 6169,
      "##林": 6170,
      "##百": 6171,
      "##列": 6172,
      "##综": 6173,
      "##流": 6174,
      "##ῦ": 6175,
      "##也": 6176,
      "##荷": 6177,
      "##頭": 6178,
      "##祭": 6179,
      "##ट": 6180,
      "##心": 6181,
      "##宝": 6182,
      "##皮": 6183,
      "##椿": 6184,
      "##ិ": 6185,
      "##ង": 6186,
      "##ヒ": 6187,
      "##ర": 6188,
      "##ి": 6189,
      "##ం": 6190,
      "##జ": 6191,
      "##抄": 6192,
      "##守": 6193,
      "##鶴": 6194,
      "##Æ": 6195,
      "##治": 6196,
      "##უ": 6197,
      "##ს": 6198,
      "##ხ": 6199,
      "##ỵ": 6200,
      "##廣": 6201,
      "##关": 6202,
      "##川": 6203,
      "##勘": 6204,
      "##ů": 6205,
      "##モ": 6206,
      "##亦": 6207,
      "##婷": 6208,
      "##冒": 6209,
      "##ջ": 6210,
      "##և": 6211,
      "##ϊ": 6212,
      "##時": 6213,
      "##迷": 6214,
      "##恭": 6215,
      "##介": 6216,
      "##風": 6217,
      "##豫": 6218,
      "##വ": 6219,
      "##ി": 6220,
      "##ശ": 6221,
      "##卡": 6222,
      "##戈": 6223,
      "##麥": 6224,
      "##斯": 6225,
      "##季": 6226,
      "##井": 6227,
      "##寿": 6228,
      "##남": 6229,
      "##ാ": 6230,
      "##ര": 6231,
      "##ങ": 6232,
      "##ゥ": 6233,
      "##二": 6234,
      "##շ": 6235,
      "##թ": 6236,
      "##礎": 6237,
      "##知": 6238,
      "##識": 6239,
      "##喚": 6240,
      "##ៃ": 6241,
      "##ណ": 6242,
      "##跆": 6243,
      "##芳": 6244,
      "##这": 6245,
      "##就": 6246,
      "##跟": 6247,
      "##走": 6248,
      "##木": 6249,
      "##多": 6250,
      "##ไ": 6251,
      "##ゼ": 6252,
      "##坪": 6253,
      "##铺": 6254,
      "##库": 6255,
      "##ペ": 6256,
      "##希": 6257,
      "##红": 6258,
      "##颜": 6259,
      "##遗": 6260,
      "##愛": 6261,
      "##黨": 6262,
      "##ณ": 6263,
      "##意": 6264,
      "##叉": 6265,
      "##誕": 6266,
      "##須": 6267,
      "##漂": 6268,
      "##錄": 6269,
      "##ภ": 6270,
      "##ɮ": 6271,
      "##ज": 6272,
      "##ृ": 6273,
      "##怪": 6274,
      "##最": 6275,
      "##`": 6276,
      "##城": 6277,
      "##之": 6278,
      "##引": 6279,
      "##Š": 6280,
      "##إ": 6281,
      "##鐵": 6282,
      "##限": 6283,
      "##後": 6284,
      "##牙": 6285,
      "##衝": 6286,
      "##ử": 6287,
      "##Λ": 6288,
      "##策": 6289,
      "##說": 6290,
      "##對": 6291,
      "##起": 6292,
      "##ṳ": 6293,
      "##三": 6294,
      "##次": 6295,
      "##盼": 6296,
      "##亮": 6297,
      "##ণ": 6298,
      "##ब": 6299,
      "##淑": 6300,
      "##敏": 6301,
      "##何": 6302,
      "##よ": 6303,
      "##ɤ": 6304,
      "##杖": 6305,
      "##倭": 6306,
      "##翁": 6307,
      "##居": 6308,
      "##ṉ": 6309,
      "##照": 6310,
      "##雇": 6311,
      "##外": 6312,
      "##前": 6313,
      "##龙": 6314,
      "##经": 6315,
      "##њ": 6316,
      "##身": 6317,
      "##条": 6318,
      "##联": 6319,
      "##თ": 6320,
      "##束": 6321,
      "##仲": 6322,
      "##裔": 6323,
      "##倉": 6324,
      "##右": 6325,
      "##衛": 6326,
      "##常": 6327,
      "##長": 6328,
      "##令": 6329,
      "##东": 6330,
      "##Ü": 6331,
      "##ܘ": 6332,
      "##ܣ": 6333,
      "##ụ": 6334,
      "##夫": 6335,
      "##စ": 6336,
      "##輝": 6337,
      "##和": 6338,
      "##ぐ": 6339,
      "##ヴ": 6340,
      "##鉴": 6341,
      "##ɳ": 6342,
      "##ɖ": 6343,
      "##ʳ": 6344,
      "##怀": 6345,
      "##滨": 6346,
      "##悲": 6347,
      "##忘": 6348,
      "##宮": 6349,
      "##ΐ": 6350,
      "##爪": 6351,
      "##泉": 6352,
      "##為": 6353,
      "##池": 6354,
      "##や": 6355,
      "##蛙": 6356,
      "##び": 6357,
      "##瀬": 6358,
      "##霖": 6359,
      "##找": 6360,
      "##ṽ": 6361,
      "##死": 6362,
      "##郁": 6363,
      "##โ": 6364,
      "##ฬ": 6365,
      "##篤": 6366,
      "##ポ": 6367,
      "##校": 6368,
      "##琴": 6369,
      "##绮": 6370,
      "##丸": 6371,
      "##ʎ": 6372,
      "##律": 6373,
      "##代": 6374,
      "##写": 6375,
      "##寬": 6376,
      "##հ": 6377,
      "##պ": 6378,
      "##տ": 6379,
      "##ک": 6380,
      "##砲": 6381,
      "##統": 6382,
      "##浮": 6383,
      "##玉": 6384,
      "##紅": 6385,
      "##旗": 6386,
      "##儡": 6387,
      "##晶": 6388,
      "##龍": 6389,
      "##ܒ": 6390,
      "##炬": 6391,
      "##щ": 6392,
      "##復": 6393,
      "##活": 6394,
      "##樸": 6395,
      "##翘": 6396,
      "##悠": 6397,
      "##蛇": 6398,
      "##ः": 6399,
      "##莉": 6400,
      "##悪": 6401,
      "##戯": 6402,
      "##米": 6403,
      "##書": 6404,
      "##ヅ": 6405,
      "##期": 6406,
      "##決": 6407,
      "##辨": 6408,
      "##軒": 6409,
      "##變": 6410,
      "##古": 6411,
      "##団": 6412,
      "##ג": 6413,
      "##ḕ": 6414,
      "##憑": 6415,
      "##燕": 6416,
      "##ੱ": 6417,
      "##ਜ": 6418,
      "##す": 6419,
      "##ぷ": 6420,
      "##吾": 6421,
      "##將": 6422,
      "##軍": 6423,
      "##翼": 6424,
      "##ပ": 6425,
      "##ြ": 6426,
      "##င": 6427,
      "##ὐ": 6428,
      "##Ž": 6429,
      "##ך": 6430,
      "##Φ": 6431,
      "##Β": 6432,
      "##弥": 6433,
      "##복": 6434,
      "##려": 6435,
      "##榮": 6436,
      "##輿": 6437,
      "##萬": 6438,
      "##全": 6439,
      "##達": 6440,
      "##廟": 6441,
      "##吉": 6442,
      "##元": 6443,
      "##坂": 6444,
      "##ボ": 6445,
      "##福": 6446,
      "##ĕ": 6447,
      "##祖": 6448,
      "##苺": 6449,
      "##허": 6450,
      "##그": 6451,
      "##尉": 6452,
      "##玄": 6453,
      "##ὶ": 6454,
      "##響": 6455,
      "##独": 6456,
      "##関": 6457,
      "##係": 6458,
      "##Ċ": 6459,
      "##夢": 6460,
      "##枯": 6461,
      "##廻": 6462,
      "##科": 6463,
      "##医": 6464,
      "##ன": 6465,
      "##拟": 6466,
      "##汉": 6467,
      "##语": 6468,
      "##系": 6469,
      "##统": 6470,
      "##ङ": 6471,
      "##残": 6472,
      "##酷": 6473,
      "##ⵎ": 6474,
      "##ⵓ": 6475,
      "##鍵": 6476,
      "##板": 6477,
      "##ʼ": 6478,
      "##烦": 6479,
      "##恼": 6480,
      "##梭": 6481,
      "##検": 6482,
      "##英": 6483,
      "##蜃": 6484,
      "##気": 6485,
      "##美": 6486,
      "##安": 6487,
      "##ˑ": 6488,
      "##禺": 6489,
      "##縣": 6490,
      "##ු": 6491,
      "##න": 6492,
      "##津": 6493,
      "##伊": 6494,
      "##信": 6495,
      "##男": 6496,
      "##賞": 6497,
      "##受": 6498,
      "##展": 6499,
      "##မ": 6500,
      "##戰": 6501,
      "##滿": 6502,
      "##洲": 6503,
      "##典": 6504,
      "##禮": 6505,
      "##租": 6506,
      "##尋": 6507,
      "##ಾ": 6508,
      "##ಮ": 6509,
      "##ು": 6510,
      "##ಂ": 6511,
      "##ಡ": 6512,
      "##佛": 6513,
      "##齊": 6514,
      "##כ": 6515,
      "##潤": 6516,
      "##好": 6517,
      "##ը": 6518,
      "##ぽ": 6519,
      "##母": 6520,
      "##形": 6521,
      "##渡": 6522,
      "##櫓": 6523,
      "##附": 6524,
      "##台": 6525,
      "##棟": 6526,
      "##謎": 6527,
      "##ᾳ": 6528,
      "##Μ": 6529,
      "##辰": 6530,
      "##争": 6531,
      "##ন": 6532,
      "##釈": 6533,
      "##漢": 6534,
      "##致": 6535,
      "##ヘ": 6536,
      "##글": 6537,
      "##빙": 6538,
      "##门": 6539,
      "##妹": 6540,
      "##簡": 6541,
      "##后": 6542,
      "##宫": 6543,
      "##徹": 6544,
      "##底": 6545,
      "##解": 6546,
      "##析": 6547,
      "##越": 6548,
      "##撲": 6549,
      "##尼": 6550,
      "##亞": 6551,
      "##ʈ": 6552,
      "##宏": 6553,
      "##芸": 6554,
      "##町": 6555,
      "##ῷ": 6556,
      "##綸": 6557,
      "##綺": 6558,
      "##望": 6559,
      "##彙": 6560,
      "##ứ": 6561,
      "##奥": 6562,
      "##義": 6563,
      "##鋼": 6564,
      "##急": 6565,
      "##仕": 6566,
      "##嘘": 6567,
      "##ூ": 6568,
      "##權": 6569,
      "##ழ": 6570,
      "##礼": 6571,
      "##胴": 6572,
      "##狗": 6573,
      "##草": 6574,
      "##彪": 6575,
      "##夏": 6576,
      "##良": 6577,
      "##防": 6578,
      "##战": 6579,
      "##習": 6580,
      "##磅": 6581,
      "##奉": 6582,
      "##献": 6583,
      "##衣": 6584,
      "##Χ": 6585,
      "##情": 6586,
      "##鬪": 6587,
      "##用": 6588,
      "##ȝ": 6589,
      "##小": 6590,
      "##净": 6591,
      "##ざ": 6592,
      "##ろ": 6593,
      "##迄": 6594,
      "##ḻ": 6595,
      "##店": 6596,
      "##役": 6597,
      "##丝": 6598,
      "##洞": 6599,
      "##时": 6600,
      "##ཙ": 6601,
      "##円": 6602,
      "##從": 6603,
      "##四": 6604,
      "##香": 6605,
      "##傳": 6606,
      "##ய": 6607,
      "##ண": 6608,
      "##ѧ": 6609,
      "##乱": 6610,
      "##闘": 6611,
      "##ザ": 6612,
      "##Δ": 6613,
      "##荼": 6614,
      "##到": 6615,
      "##非": 6616,
      "##玲": 6617,
      "##斗": 6618,
      "##朏": 6619,
      "##ள": 6620,
      "##ை": 6621,
      "##ட": 6622,
      "##ᚢ": 6623,
      "##ᛏ": 6624,
      "##ᚨ": 6625,
      "##ᛁ": 6626,
      "##ᛟ": 6627,
      "##ᚹ": 6628,
      "##ꜜ": 6629,
      "##远": 6630,
      "##朋": 6631,
      "##友": 6632,
      "##嶋": 6633,
      "##夕": 6634,
      "##初": 6635,
      "##曆": 6636,
      "##墓": 6637,
      "##է": 6638,
      "##ゲ": 6639,
      "##賈": 6640,
      "##莞": 6641,
      "##ゆ": 6642,
      "##ひ": 6643,
      "##ɻ": 6644,
      "##緒": 6645,
      "##ṯ": 6646,
      "##想": 6647,
      "##ई": 6648,
      "##聚": 6649,
      "##忠": 6650,
      "##泊": 6651,
      "##蘭": 6652,
      "##豬": 6653,
      "##騰": 6654,
      "##க": 6655,
      "##蒲": 6656,
      "##胡": 6657,
      "##筐": 6658,
      "##斜": 6659,
      "##ភ": 6660,
      "##始": 6661,
      "##若": 6662,
      "##爱": 6663,
      "##无": 6664,
      "##礁": 6665,
      "##浦": 6666,
      "##揺": 6667,
      "##径": 6668,
      "##修": 6669,
      "##叡": 6670,
      "##ఠ": 6671,
      "##נ": 6672,
      "##省": 6673,
      "##润": 6674,
      "##檻": 6675,
      "##痘": 6676,
      "##ⴳ": 6677,
      "##ⵜ": 6678,
      "##币": 6679,
      "##ﬁ": 6680,
      "##杜": 6681,
      "##ⵇ": 6682,
      "##ⵍ": 6683,
      "##ಲ": 6684,
      "##ಕ": 6685,
      "##農": 6686,
      "##Ä": 6687,
      "##ծ": 6688,
      "##ख": 6689,
      "##惟": 6690,
      "##辿": 6691,
      "##沖": 6692,
      "##伴": 6693,
      "##あ": 6694,
      "##秋": 6695,
      "##貝": 6696,
      "##劃": 6697,
      "##土": 6698,
      "##抓": 6699,
      "##ᶴ": 6700,
      "##侍": 6701,
      "##堯": 6702,
      "##块": 6703,
      "##比": 6704,
      "##萨": 6705,
      "##ถ": 6706,
      "##惠": 6707,
      "##鹿": 6708,
      "##姑": 6709,
      "##末": 6710,
      "##烧": 6711,
      "##儿": 6712,
      "##盆": 6713,
      "##而": 6714,
      "##张": 6715,
      "##ء": 6716,
      "##경": 6717,
      "##관": 6718,
      "##标": 6719,
      "##辉": 6720,
      "##筆": 6721,
      "##談": 6722,
      "##ἰ": 6723,
      "##ʑ": 6724,
      "##豪": 6725,
      "##ŵ": 6726,
      "##기": 6727,
      "##천": 6728,
      "##순": 6729,
      "##ᛚ": 6730,
      "##影": 6731,
      "##ớ": 6732,
      "##够": 6733,
      "##李": 6734,
      "##鞠": 6735,
      "##寶": 6736,
      "##帮": 6737,
      "##집": 6738,
      "##微": 6739,
      "##垣": 6740,
      "##五": 6741,
      "##潜": 6742,
      "##墙": 6743,
      "##茂": 6744,
      "##鱀": 6745,
      "##豚": 6746,
      "##族": 6747,
      "##馆": 6748,
      "##芙": 6749,
      "##祥": 6750,
      "##历": 6751,
      "##昭": 6752,
      "##ṁ": 6753,
      "##毛": 6754,
      "##暴": 6755,
      "##健": 6756,
      "##奇": 6757,
      "##京": 6758,
      "##ŗ": 6759,
      "##ắ": 6760,
      "##લ": 6761,
      "##સ": 6762,
      "##ા": 6763,
      "##ર": 6764,
      "##维": 6765,
      "##陸": 6766,
      "##鴻": 6767,
      "##漸": 6768,
      "##棲": 6769,
      "##霞": 6770,
      "##采": 6771,
      "##牛": 6772,
      "##支": 6773,
      "##魯": 6774,
      "##ʝ": 6775,
      "##ầ": 6776,
      "##ٰ": 6777,
      "##丞": 6778,
      "##相": 6779,
      "##座": 6780,
      "##ņ": 6781,
      "##ⁿ": 6782,
      "##ὲ": 6783,
      "##ձ": 6784,
      "##ז": 6785,
      "##藥": 6786,
      "##澄": 6787,
      "##吳": 6788,
      "##今": 6789,
      "##부": 6790,
      "##대": 6791,
      "##ȷ": 6792,
      "##瑣": 6793,
      "##қ": 6794,
      "##ᵊ": 6795,
      "##執": 6796,
      "##ᒡ": 6797,
      "##ᓘ": 6798,
      "##ᑲ": 6799,
      "##高": 6800,
      "##裁": 6801,
      "##判": 6802,
      "##扇": 6803,
      "##總": 6804,
      "##ũ": 6805,
      "##ĩ": 6806,
      "##庭": 6807,
      "##방": 6808,
      "##울": 6809,
      "##ತ": 6810,
      "##ᠣ": 6811,
      "##ᠯ": 6812,
      "##ᡳ": 6813,
      "##蓀": 6814,
      "##崎": 6815,
      "##ᡨ": 6816,
      "##乩": 6817,
      "##裕": 6818,
      "##蝕": 6819,
      "##仮": 6820,
      "##面": 6821,
      "##老": 6822,
      "##焦": 6823,
      "##Ꭶ": 6824,
      "##Ꭸ": 6825,
      "##Ᏹ": 6826,
      "##動": 6827,
      "##儀": 6828,
      "##傅": 6829,
      "##ვ": 6830,
      "##ზ": 6831,
      "##力": 6832,
      "##善": 6833,
      "##阪": 6834,
      "##ṝ": 6835,
      "##誓": 6836,
      "##코": 6837,
      "##च": 6838,
      "##华": 6839,
      "##徒": 6840,
      "##Ō": 6841,
      "##艳": 6842,
      "##ḩ": 6843,
      "##妮": 6844,
      "##超": 6845,
      "##自": 6846,
      "##凰": 6847,
      "##佐": 6848,
      "##厥": 6849,
      "##ʐ": 6850,
      "##ܕ": 6851,
      "##ܡ": 6852,
      "##ܪ": 6853,
      "##ܬ": 6854,
      "##ゾ": 6855,
      "##性": 6856,
      "##落": 6857,
      "##ﮮ": 6858,
      "##樹": 6859,
      "##伯": 6860,
      "##爵": 6861,
      "##戸": 6862,
      "##均": 6863,
      "##犖": 6864,
      "##庚": 6865,
      "##紀": 6866,
      "##念": 6867,
      "##醫": 6868,
      "##鑒": 6869,
      "##づ": 6870,
      "##雞": 6871,
      "##盘": 6872,
      "##勝": 6873,
      "##負": 6874,
      "##角": 6875,
      "##ै": 6876,
      "##括": 6877,
      "##Ş": 6878,
      "##宋": 6879,
      "##逢": 6880,
      "##案": 6881,
      "##參": 6882,
      "##考": 6883,
      "##資": 6884,
      "##芮": 6885,
      "##គ": 6886,
      "##封": 6887,
      "##尽": 6888,
      "##鷹": 6889,
      "##牌": 6890,
      "##营": 6891,
      "##誦": 6892,
      "##堂": 6893,
      "##悟": 6894,
      "##回": 6895,
      "##目": 6896,
      "##券": 6897,
      "##奪": 6898,
      "##复": 6899,
      "##ṟ": 6900,
      "##ਸ": 6901,
      "##ө": 6902,
      "##ර": 6903,
      "##ම": 6904,
      "##ऽ": 6905,
      "##堤": 6906,
      "##孫": 6907,
      "##運": 6908,
      "##壌": 6909,
      "##翔": 6910,
      "##斤": 6911,
      "##虐": 6912,
      "##そ": 6913,
      "##出": 6914,
      "##楽": 6915,
      "##য": 6916,
      "##ỳ": 6917,
      "##砖": 6918,
      "##პ": 6919,
      "##ტ": 6920,
      "##变": 6921,
      "##了": 6922,
      "##沛": 6923,
      "##宁": 6924,
      "##約": 6925,
      "##ֱ": 6926,
      "##繋": 6927,
      "##鋪": 6928,
      "##ÿ": 6929,
      "##架": 6930,
      "##侨": 6931,
      "##స": 6932,
      "##命": 6933,
      "##笨": 6934,
      "##补": 6935,
      "##晒": 6936,
      "##为": 6937,
      "##Л": 6938,
      "##Я": 6939,
      "##식": 6940,
      "##회": 6941,
      "##사": 6942,
      "##이": 6943,
      "##스": 6944,
      "##ಿ": 6945,
      "##ಠ": 6946,
      "##賢": 6947,
      "##फ": 6948,
      "##懷": 6949,
      "##ॆ": 6950,
      "##ề": 6951,
      "##帰": 6952,
      "##枝": 6953,
      "##喝": 6954,
      "##ɘ": 6955,
      "##塚": 6956,
      "##ធ": 6957,
      "##ៈ": 6958,
      "##Ά": 6959,
      "##չ": 6960,
      "##撒": 6961,
      "##結": 6962,
      "##婚": 6963,
      "##礮": 6964,
      "##舍": 6965,
      "##ў": 6966,
      "##屑": 6967,
      "##ဲ": 6968,
      "##籠": 6969,
      "##涵": 6970,
      "##止": 6971,
      "##關": 6972,
      "##以": 6973,
      "##ฟ": 6974,
      "##ญ": 6975,
      "##贤": 6976,
      "##Ψ": 6977,
      "##軽": 6978,
      "##ូ": 6979,
      "##共": 6980,
      "##ோ": 6981,
      "##È": 6982,
      "##ἷ": 6983,
      "##虎": 6984,
      "##ỹ": 6985,
      "##兵": 6986,
      "##ማ": 6987,
      "##ረ": 6988,
      "##ɥ": 6989,
      "##群": 6990,
      "##納": 6991,
      "##ˣ": 6992,
      "##種": 6993,
      "##府": 6994,
      "##採": 6995,
      "##購": 6996,
      "##著": 6997,
      "##鸟": 6998,
      "##ợ": 6999,
      "##隠": 7000,
      "##ಸ": 7001,
      "##ǂ": 7002,
      "##熱": 7003,
      "##融": 7004,
      "##序": 7005,
      "##ා": 7006,
      "##ජ": 7007,
      "##ධ": 7008,
      "##ි": 7009,
      "##ය": 7010,
      "##盏": 7011,
      "##灯": 7012,
      "##泡": 7013,
      "##ḑ": 7014,
      "##놔": 7015,
      "##言": 7016,
      "##ⵙ": 7017,
      "##ⴽ": 7018,
      "##ⵡ": 7019,
      "##質": 7020,
      "##失": 7021,
      "##症": 7022,
      "##ἶ": 7023,
      "##經": 7024,
      "##ấ": 7025,
      "##聖": 7026,
      "##慶": 7027,
      "##留": 7028,
      "##控": 7029,
      "##ѣ": 7030,
      "##兜": 7031,
      "##肚": 7032,
      "##হ": 7033,
      "##돌": 7034,
      "##巫": 7035,
      "##商": 7036,
      "##會": 7037,
      "##Ô": 7038,
      "##芦": 7039,
      "##え": 7040,
      "##章": 7041,
      "##完": 7042,
      "##ៅ": 7043,
      "##ថ": 7044,
      "##ɹ": 7045,
      "##ీ": 7046,
      "##న": 7047,
      "##ெ": 7048,
      "##蕃": 7049,
      "##郛": 7050,
      "##付": 7051,
      "##膺": 7052,
      "##শ": 7053,
      "##番": 7054,
      "##ὴ": 7055,
      "##ব": 7056,
      "##ঙ": 7057,
      "##ˁ": 7058,
      "##ホ": 7059,
      "##消": 7060,
      "##辯": 7061,
      "##蓑": 7062,
      "##鵡": 7063,
      "##幸": 7064,
      "##易": 7065,
      "##聞": 7066,
      "##ద": 7067,
      "##幕": 7068,
      "##ং": 7069,
      "##ọ": 7070,
      "##ɢ": 7071,
      "##護": 7072,
      "##憶": 7073,
      "##棘": 7074,
      "##算": 7075,
      "##数": 7076,
      "##օ": 7077,
      "##ష": 7078,
      "##ნ": 7079,
      "##ֿ": 7080,
      "##ᡴ": 7081,
      "##ᠪ": 7082,
      "##ᡠ": 7083,
      "##ᡥ": 7084,
      "##ᠠ": 7085,
      "##喜": 7086,
      "##歡": 7087,
      "##ɬ": 7088,
      "##楚": 7089,
      "##楠": 7090,
      "##技": 7091,
      "##疾": 7092,
      "##너": 7093,
      "##피": 7094,
      "##ĉ": 7095,
      "##鳩": 7096,
      "##八": 7097,
      "##幡": 7098,
      "##難": 7099,
      "##ƀ": 7100,
      "##唱": 7101,
      "##陈": 7102,
      "##伟": 7103,
      "##ὕ": 7104,
      "##兔": 7105,
      "##ሕ": 7106,
      "##ዛ": 7107,
      "##ብ": 7108,
      "##腐": 7109,
      "##渣": 7110,
      "##工": 7111,
      "##戎": 7112,
      "##駿": 7113,
      "##牢": 7114,
      "##酒": 7115,
      "##ʹ": 7116,
      "##ञ": 7117,
      "##ť": 7118,
      "##ġ": 7119,
      "##吧": 7120,
      "##န": 7121,
      "##ぎ": 7122,
      "##強": 7123,
      "##卜": 7124,
      "##ؤ": 7125,
      "##體": 7126,
      "##内": 7127,
      "##再": 7128,
      "##瑜": 7129,
      "##割": 7130,
      "##호": 7131,
      "##杏": 7132,
      "##阿": 7133,
      "##瓢": 7134,
      "##箪": 7135,
      "##ำ": 7136,
      "##芒": 7137,
      "##根": 7138,
      "##階": 7139,
      "##尚": 7140,
      "##橚": 7141,
      "##那": 7142,
      "##음": 7143,
      "##貞": 7144,
      "##邊": 7145,
      "##略": 7146,
      "##뱅": 7147,
      "##谷": 7148,
      "##鼎": 7149,
      "##罪": 7150,
      "##鼻": 7151,
      "##ɦ": 7152,
      "##劣": 7153,
      "##等": 7154,
      "##Ї": 7155,
      "##Н": 7156,
      "##І": 7157,
      "##蕩": 7158,
      "##息": 7159,
      "##ึ": 7160,
      "##屯": 7161,
      "##姉": 7162,
      "##濞": 7163,
      "##ে": 7164,
      "##曾": 7165,
      "##问": 7166,
      "##休": 7167,
      "##霊": 7168,
      "##罸": 7169,
      "##任": 7170,
      "##員": 7171,
      "##借": 7172,
      "##久": 7173,
      "##Ĕ": 7174,
      "##壽": 7175,
      "##祺": 7176,
      "##対": 7177,
      "##応": 7178,
      "##국": 7179,
      "##화": 7180,
      "##宴": 7181,
      "##朱": 7182,
      "##将": 7183,
      "##輔": 7184,
      "##衡": 7185,
      "##圏": 7186,
      "##球": 7187,
      "##雳": 7188,
      "##ಗ": 7189,
      "##声": 7190,
      "##斬": 7191,
      "##ḫ": 7192,
      "##犬": 7193,
      "##密": 7194,
      "##父": 7195,
      "##攝": 7196,
      "##梦": 7197,
      "##ٍ": 7198,
      "##浪": 7199,
      "##혹": 7200,
      "##의": 7201,
      "##岳": 7202,
      "##庙": 7203,
      "##紙": 7204,
      "##颗": 7205,
      "##弹": 7206,
      "##首": 7207,
      "##縊": 7208,
      "##藏": 7209,
      "##歷": 7210,
      "##禾": 7211,
      "##与": 7212,
      "##ஸ": 7213,
      "##除": 7214,
      "##祐": 7215,
      "##薇": 7216,
      "##Ú": 7217,
      "##吟": 7218,
      "##実": 7219,
      "##آ": 7220,
      "##晋": 7221,
      "##ீ": 7222,
      "##𐎺": 7223,
      "##欣": 7224,
      "##Γ": 7225,
      "##ɭ": 7226,
      "##鈴": 7227,
      "##沉": 7228,
      "##'": 7229,
      "##镇": 7230,
      "##柆": 7231,
      "##隱": 7232,
      "##陵": 7233,
      "##青": 7234,
      "##岛": 7235,
      "##冶": 7236,
      "##傭": 7237,
      "##ẩ": 7238,
      "##ទ": 7239,
      "##យ": 7240,
      "##甜": 7241,
      "##湖": 7242,
      "##ን": 7243,
      "##ገ": 7244,
      "##ድ": 7245,
      "##Ī": 7246,
      "##機": 7247,
      "##黄": 7248,
      "##岸": 7249,
      "##其": 7250,
      "##邁": 7251,
      "##珂": 7252,
      "##歓": 7253,
      "##ḱ": 7254,
      "##监": 7255,
      "##ྱ": 7256,
      "##ི": 7257,
      "##６": 7258,
      "##蔵": 7259,
      "##灵": 7260,
      "##昂": 7261,
      "##Յ": 7262,
      "##Դ": 7263,
      "##闍": 7264,
      "##梨": 7265,
      "##述": 7266,
      "##尧": 7267,
      "##皙": 7268,
      "##継": 7269,
      "##網": 7270,
      "##ヌ": 7271,
      "##訳": 7272,
      "##桜": 7273,
      "##篇": 7274,
      "##ｰ": 7275,
      "##ὼ": 7276,
      "##ˢ": 7277,
      "##沂": 7278,
      "##ǜ": 7279,
      "##ိ": 7280,
      "##ု": 7281,
      "##弐": 7282,
      "##拾": 7283,
      "##壱": 7284,
      "##祈": 7285,
      "##재": 7286,
      "##범": 7287,
      "##സ": 7288,
      "##У": 7289,
      "##П": 7290,
      "##є": 7291,
      "##ဟ": 7292,
      "##ာ": 7293,
      "##刘": 7294,
      "##Î": 7295,
      "##Ă": 7296,
      "##ḏ": 7297,
      "##彭": 7298,
      "##顏": 7299,
      "##襄": 7300,
      "##剧": 7301,
      "##可": 7302,
      "##禰": 7303,
      "##ぺ": 7304,
      "##风": 7305,
      "##动": 7306,
      "##仪": 7307,
      "##孝": 7308,
      "##候": 7309,
      "##肩": 7310,
      "##昏": 7311,
      "##交": 7312,
      "##差": 7313,
      "##点": 7314,
      "##բ": 7315,
      "##直": 7316,
      "##滑": 7317,
      "##煩": 7318,
      "##禎": 7319,
      "##暦": 7320,
      "##丙": 7321,
      "##娜": 7322,
      "##蓮": 7323,
      "##ہ": 7324,
      "##博": 7325,
      "##様": 7326,
      "##爆": 7327,
      "##ね": 7328,
      "##ီ": 7329,
      "##ရ": 7330,
      "##,": 7331,
      "##@": 7332,
      "##厚": 7333,
      "##鷺": 7334,
      "##沙": 7335,
      "##耶": 7336,
      "##鵬": 7337,
      "##虔": 7338,
      "##亨": 7339,
      "##帥": 7340,
      "##畑": 7341,
      "##別": 7342,
      "##僑": 7343,
      "##學": 7344,
      "##Ц": 7345,
      "##Б": 7346,
      "##乘": 7347,
      "##ʉ": 7348,
      "##绍": 7349,
      "##梁": 7350,
      "##使": 7351,
      "##雎": 7352,
      "##ừ": 7353,
      "##汤": 7354,
      "##宗": 7355,
      "##师": 7356,
      "##指": 7357,
      "##導": 7358,
      "##ở": 7359,
      "##翠": 7360,
      "##沽": 7361,
      "##珍": 7362,
      "##药": 7363,
      "##顯": 7364,
      "##経": 7365,
      "##ẓ": 7366,
      "##宜": 7367,
      "##љ": 7368,
      "##同": 7369,
      "##胞": 7370,
      "##儒": 7371,
      "##諭": 7372,
      "##栖": 7373,
      "##権": 7374,
      "##ѝ": 7375,
      "##ព": 7376,
      "##衙": 7377,
      "##邪": 7378,
      "##顔": 7379,
      "##雜": 7380,
      "##ἥ": 7381,
      "##改": 7382,
      "##模": 7383,
      "##來": 7384,
      "##處": 7385,
      "##ċ": 7386,
      "##煌": 7387,
      "##ẹ": 7388,
      "##堀": 7389,
      "##ほ": 7390,
      "##俊": 7391,
      "##叶": 7392,
      "##深": 7393,
      "##瑾": 7394,
      "##ስ": 7395,
      "##ታ": 7396,
      "##ቲ": 7397,
      "##ኖ": 7398,
      "##袈": 7399,
      "##裟": 7400,
      "##ይ": 7401,
      "##ኲ": 7402,
      "##ϕ": 7403,
      "##Ħ": 7404,
      "##ǣ": 7405,
      "##侠": 7406,
      "##維": 7407,
      "##२": 7408,
      "##寨": 7409,
      "##肉": 7410,
      "##ැ": 7411,
      "##퇴": 7412,
      "##答": 7413,
      "##２": 7414,
      "##ủ": 7415,
      "##ὗ": 7416,
      "##髀": 7417,
      "##ॉ": 7418,
      "##在": 7419,
      "##ὑ": 7420,
      "##Ѣ": 7421,
      "##巳": 7422,
      "##泣": 7423,
      "##蘄": 7424,
      "##鹼": 7425,
      "##ヶ": 7426,
      "##鎮": 7427,
      "##ǧ": 7428,
      "##危": 7429,
      "##志": 7430,
      "##靖": 7431,
      "##裝": 7432,
      "##ً": 7433,
      "##乙": 7434,
      "##憂": 7435,
      "##Ｒ": 7436,
      "##Ｐ": 7437,
      "##Ｇ": 7438,
      "##登": 7439,
      "##嘉": 7440,
      "##進": 7441,
      "##東": 7442,
      "##栗": 7443,
      "##耆": 7444,
      "##振": 7445,
      "##铎": 7446,
      "##琬": 7447,
      "##芯": 7448,
      "##瓦": 7449,
      "##棚": 7450,
      "##収": 7451,
      "##載": 7452,
      "##ॊ": 7453,
      "##緯": 7454,
      "##承": 7455,
      "##ള": 7456,
      "##羊": 7457,
      "##雕": 7458,
      "##像": 7459,
      "##叔": 7460,
      "##開": 7461,
      "##타": 7462,
      "##일": 7463,
      "##头": 7464,
      "##색": 7465,
      "##시": 7466,
      "##를": 7467,
      "##ʱ": 7468,
      "##持": 7469,
      "##億": 7470,
      "##자": 7471,
      "##론": 7472,
      "##謡": 7473,
      "##隸": 7474,
      "##杲": 7475,
      "##午": 7476,
      "##Ø": 7477,
      "##Ѡ": 7478,
      "##Ъ": 7479,
      "##騷": 7480,
      "##噛": 7481,
      "##妙": 7482,
      "##読": 7483,
      "##先": 7484,
      "##狐": 7485,
      "##ც": 7486,
      "##璽": 7487,
      "##ᵿ": 7488,
      "##衢": 7489,
      "##ឫ": 7490,
      "##邑": 7491,
      "##ো": 7492,
      "##ৰ": 7493,
      "##雀": 7494,
      "##ల": 7495,
      "##淘": 7496,
      "##汰": 7497,
      "##巨": 7498,
      "##奏": 7499,
      "##ђ": 7500,
      "##瑞": 7501,
      "##ʽ": 7502,
      "##铜": 7503,
      "##器": 7504,
      "##ನ": 7505,
      "##桀": 7506,
      "##裳": 7507,
      "##霹": 7508,
      "##炮": 7509,
      "##敢": 7510,
      "##横": 7511,
      "##確": 7512,
      "##ظ": 7513,
      "##机": 7514,
      "##ῳ": 7515,
      "##倫": 7516,
      "##炯": 7517,
      "##线": 7518,
      "##ժ": 7519,
      "##壓": 7520,
      "##М": 7521,
      "##焔": 7522,
      "##処": 7523,
      "##依": 7524,
      "##앙": 7525,
      "##연": 7526,
      "##구": 7527,
      "##槤": 7528,
      "##飄": 7529,
      "##剛": 7530,
      "##习": 7531,
      "##圧": 7532,
      "##ᵝ": 7533,
      "##산": 7534,
      "##신": 7535,
      "##광": 7536,
      "##ฉ": 7537,
      "##渊": 7538,
      "##阁": 7539,
      "##삿": 7540,
      "##다": 7541,
      "##薙": 7542,
      "##예": 7543,
      "##술": 7544,
      "##禄": 7545,
      "##級": 7546,
      "##ぞ": 7547,
      "##珙": 7548,
      "##ܚ": 7549,
      "##护": 7550,
      "##汗": 7551,
      "##轩": 7552,
      "##俱": 7553,
      "##乐": 7554,
      "##特": 7555,
      "##豹": 7556,
      "##雁": 7557,
      "##虫": 7558,
      "##尸": 7559,
      "##冠": 7560,
      "##臂": 7561,
      "##膀": 7562,
      "##沼": 7563,
      "##靼": 7564,
      "##무": 7565,
      "##아": 7566,
      "##트": 7567,
      "##홀": 7568,
      "##湯": 7569,
      "##痴": 7570,
      "##吹": 7571,
      "##থ": 7572,
      "##晉": 7573,
      "##亜": 7574,
      "##細": 7575,
      "##協": 7576,
      "##榔": 7577,
      "##嶼": 7578,
      "##凱": 7579,
      "##간": 7580,
      "##문": 7581,
      "##１": 7582,
      "##দ": 7583,
      "##烏": 7584,
      "##姦": 7585,
      "##Π": 7586,
      "##督": 7587,
      "##脉": 7588,
      "##禁": 7589,
      "##靂": 7590,
      "##尺": 7591,
      "##加": 7592,
      "##坡": 7593,
      "##개": 7594,
      "##შ": 7595,
      "##지": 7596,
      "##録": 7597,
      "##წ": 7598,
      "##ფ": 7599,
      "##副": 7600,
      "##贝": 7601,
      "##计": 7602,
      "##划": 7603,
      "##蒿": 7604,
      "##ḳ": 7605,
      "##鳴": 7606,
      "##亚": 7607,
      "##周": 7608,
      "##勃": 7609,
      "##姚": 7610,
      "##钊": 7611,
      "##协": 7612,
      "##议": 7613,
      "##筹": 7614,
      "##备": 7615,
      "##拍": 7616,
      "##ὡ": 7617,
      "##瓊": 7618,
      "##北": 7619,
      "##财": 7620,
      "##际": 7621,
      "##泾": 7622,
      "##祚": 7623,
      "##勅": 7624,
      "##명": 7625,
      "##重": 7626,
      "##ۍ": 7627,
      "##左": 7628,
      "##毅": 7629,
      "##迈": 7630,
      "##鋒": 7631,
      "##课": 7632,
      "##祀": 7633,
      "##笛": 7634,
      "##親": 7635,
      "##籍": 7636,
      "##ぃ": 7637,
      "##征": 7638,
      "##曜": 7639,
      "##ἵ": 7640,
      "##舎": 7641,
      "##旅": 7642,
      "##루": 7643,
      "##하": 7644,
      "##郡": 7645,
      "##卖": 7646,
      "##朗": 7647,
      "##松": 7648,
      "##표": 7649,
      "##록": 7650,
      "##ے": 7651,
      "##ར": 7652,
      "##升": 7653,
      "##恋": 7654,
      "##味": 7655,
      "##韓": 7656,
      "##托": 7657,
      "##雉": 7658,
      "##與": 7659,
      "##ɞ": 7660,
      "##막": 7661,
      "##然": 7662,
      "##操": 7663,
      "##綱": 7664,
      "##千": 7665,
      "##抜": 7666,
      "##斎": 7667,
      "##ẵ": 7668,
      "##초": 7669,
      "##에": 7670,
      "##凯": 7671,
      "##供": 7672,
      "##閨": 7673,
      "##喬": 7674,
      "##ዕ": 7675,
      "##ቆ": 7676,
      "##囁": 7677,
      "##위": 7678,
      "##단": 7679,
      "##원": 7680,
      "##ⵢ": 7681,
      "##匹": 7682,
      "##ผ": 7683,
      "##職": 7684,
      "##ბ": 7685,
      "##ổ": 7686,
      "##槐": 7687,
      "##驤": 7688,
      "##繼": 7689,
      "##鹽": 7690,
      "##誌": 7691,
      "##琪": 7692,
      "##紋": 7693,
      "##芝": 7694,
      "##桐": 7695,
      "##詔": 7696,
      "##ふ": 7697,
      "##河": 7698,
      "##絡": 7699,
      "##獄": 7700,
      "##乌": 7701,
      "##贼": 7702,
      "##侗": 7703,
      "##观": 7704,
      "##ୁ": 7705,
      "##ର": 7706,
      "##ୀ": 7707,
      "##踏": 7708,
      "##注": 7709,
      "##晴": 7710,
      "##处": 7711,
      "##謀": 7712,
      "##ɰ": 7713,
      "##鎖": 7714,
      "##街": 7715,
      "##濃": 7716,
      "##勇": 7717,
      "##ɚ": 7718,
      "##數": 7719,
      "##椛": 7720,
      "##樉": 7721,
      "##丘": 7722,
      "##ྥ": 7723,
      "##گ": 7724,
      "##ܝ": 7725,
      "##積": 7726,
      "##探": 7727,
      "##偵": 7728,
      "##補": 7729,
      "##環": 7730,
      "##奧": 7731,
      "##帆": 7732,
      "##逆": 7733,
      "##襲": 7734,
      "##由": 7735,
      "##迦": 7736,
      "##黒": 7737,
      "##డ": 7738,
      "##ు": 7739,
      "##గ": 7740,
      "##図": 7741,
      "##担": 7742,
      "##丈": 7743,
      "##ყ": 7744,
      "##고": 7745,
      "##ŷ": 7746,
      "##断": 7747,
      "##烟": 7748,
      "##气": 7749,
      "##設": 7750,
      "##早": 7751,
      "##苗": 7752,
      "##竜": 7753,
      "##细": 7754,
      "##騒": 7755,
      "##樓": 7756,
      "##徽": 7757,
      "##岬": 7758,
      "##救": 7759,
      "##ឯ": 7760,
      "##ជ": 7761,
      "##ខ": 7762,
      "##ﬀ": 7763,
      "##摸": 7764,
      "##ẫ": 7765,
      "##３": 7766,
      "##組": 7767,
      "##Ó": 7768,
      "##挥": 7769,
      "##秦": 7770,
      "##猫": 7771,
      "##ἳ": 7772,
      "##ḹ": 7773,
      "##遼": 7774,
      "##鰐": 7775,
      "##ល": 7776,
      "##ួ": 7777,
      "##谦": 7778,
      "##Ǝ": 7779,
      "##Е": 7780,
      "##Й": 7781,
      "##狸": 7782,
      "##精": 7783,
      "##験": 7784,
      "##점": 7785,
      "##ွ": 7786,
      "##標": 7787,
      "##屠": 7788,
      "##杀": 7789,
      "##노": 7790,
      "##삼": 7791,
      "##물": 7792,
      "##뿐": 7793,
      "##宵": 7794,
      "##脩": 7795,
      "##ฑ": 7796,
      "##抱": 7797,
      "##己": 7798,
      "##掲": 7799,
      "##示": 7800,
      "##襟": 7801,
      "##Í": 7802,
      "##央": 7803,
      "##卸": 7804,
      "##売": 7805,
      "##ँ": 7806,
      "##返": 7807,
      "##ப": 7808,
      "##忍": 7809,
      "##盒": 7810,
      "##爽": 7811,
      "##ȯ": 7812,
      "##ৈ": 7813,
      "##খ": 7814,
      "##娘": 7815,
      "##粟": 7816,
      "##內": 7817,
      "##鳳": 7818,
      "##థ": 7819,
      "##惑": 7820,
      "##လ": 7821,
      "##ဇ": 7822,
      "##兆": 7823,
      "##翻": 7824,
      "##坝": 7825,
      "##铁": 7826,
      "##乎": 7827,
      "##切": 7828,
      "##ϟ": 7829,
      "##優": 7830,
      "##刃": 7831,
      "##ĺ": 7832,
      "##庆": 7833,
      "##屍": 7834,
      "##渦": 7835,
      "##挑": 7836,
      "##映": 7837,
      "##ڠ": 7838,
      "##ڬ": 7839,
      "##স": 7840,
      "##両": 7841,
      "##炎": 7842,
      "##체": 7843,
      "##불": 7844,
      "##们": 7845,
      "##岡": 7846,
      "##卒": 7847,
      "##雾": 7848,
      "##昌": 7849,
      "##告": 7850,
      "##霸": 7851,
      "##頃": 7852,
      "##召": 7853,
      "##唄": 7854,
      "##Ꮃ": 7855,
      "##Ꮀ": 7856,
      "##Ꮉ": 7857,
      "##극": 7858,
      "##장": 7859,
      "##殻": 7860,
      "##隊": 7861,
      "##醒": 7862,
      "##姿": 7863,
      "##勢": 7864,
      "##踊": 7865,
      "##ɴ": 7866,
      "##汝": 7867,
      "##适": 7868,
      "##舟": 7869,
      "##侯": 7870,
      "##穌": 7871,
      "##麼": 7872,
      "##𐭉": 7873,
      "##𐭓": 7874,
      "##𐭃": 7875,
      "##𐭕": 7876,
      "##狀": 7877,
      "##淇": 7878,
      "##용": 7879,
      "##报": 7880,
      "##課": 7881,
      "##Å": 7882,
      "##及": 7883,
      "##邦": 7884,
      "##퍼": 7885,
      "##런": 7886,
      "##才": 7887,
      "##ქ": 7888,
      "##坤": 7889,
      "##鐸": 7890,
      "##凤": 7891,
      "##나": 7892,
      "##倪": 7893,
      "##私": 7894,
      "##塊": 7895,
      "##丁": 7896,
      "##泥": 7897,
      "##Ｃ": 7898,
      "##Ｄ": 7899,
      "##貴": 7900,
      "##尔": 7901,
      "##布": 7902,
      "##ฏ": 7903,
      "##廷": 7904,
      "##漫": 7905,
      "##畫": 7906,
      "##ヨ": 7907,
      "##幽": 7908,
      "##椅": 7909,
      "##ᾰ": 7910,
      "##ῐ": 7911,
      "##ો": 7912,
      "##ખ": 7913,
      "##전": 7914,
      "##稔": 7915,
      "##ই": 7916,
      "##頒": 7917,
      "##郑": 7918,
      "##械": 7919,
      "##鎧": 7920,
      "##ぅ": 7921,
      "##換": 7922,
      "##徳": 7923,
      "##라": 7924,
      "##瑋": 7925,
      "##蓝": 7926,
      "##刊": 7927,
      "##材": 7928,
      "##罗": 7929,
      "##ぱ": 7930,
      "##桓": 7931,
      "##傘": 7932,
      "##碼": 7933,
      "##ぜ": 7934,
      "##莊": 7935,
      "##ぬ": 7936,
      "##ჳ": 7937,
      "##洁": 7938,
      "##源": 7939,
      "##侬": 7940,
      "##看": 7941,
      "##兩": 7942,
      "##個": 7943,
      "##壯": 7944,
      "##腎": 7945,
      "##ї": 7946,
      "##鸡": 7947,
      "##权": 7948,
      "##端": 7949,
      "##对": 7950,
      "##盟": 7951,
      "##发": 7952,
      "##响": 7953,
      "##移": 7954,
      "##射": 7955,
      "##矢": 7956,
      "##ֳ": 7957,
      "##ⴷ": 7958,
      "##滅": 7959,
      "##诺": 7960,
      "##ѹ": 7961,
      "##Ś": 7962,
      "##Ḥ": 7963,
      "##ठ": 7964,
      "##Ｉ": 7965,
      "##賓": 7966,
      "##ں": 7967,
      "##車": 7968,
      "##琦": 7969,
      "##産": 7970,
      "##藤": 7971,
      "##ܔ": 7972,
      "##助": 7973,
      "##ճ": 7974,
      "##၂": 7975,
      "##၈": 7976,
      "##၇": 7977,
      "##遇": 7978,
      "##გ": 7979,
      "##З": 7980,
      "##Ы": 7981,
      "##爭": 7982,
      "##橋": 7983,
      "##施": 7984,
      "##蝉": 7985,
      "##脱": 7986,
      "##壳": 7987,
      "##筍": 7988,
      "##诉": 7989,
      "##散": 7990,
      "##ಶ": 7991,
      "##充": 7992,
      "##功": 7993,
      "##憲": 7994,
      "##氣": 7995,
      "##庇": 7996,
      "##ძ": 7997,
      "##荘": 7998,
      "##旭": 7999,
      "##應": 8000,
      "##碍": 8001,
      "##Â": 8002,
      "##į": 8003,
      "##巂": 8004,
      "##箇": 8005,
      "##脈": 8006,
      "##梯": 8007,
      "##漏": 8008,
      "##瑙": 8009,
      "##勒": 8010,
      "##閒": 8011,
      "##瑠": 8012,
      "##穎": 8013,
      "##恆": 8014,
      "##념": 8015,
      "##仔": 8016,
      "##泰": 8017,
      "##只": 8018,
      "##鉄": 8019,
      "##柩": 8020,
      "##ɺ": 8021,
      "##幣": 8022,
      "##焼": 8023,
      "##ሥ": 8024,
      "##ሓ": 8025,
      "##騎": 8026,
      "##弟": 8027,
      "##漁": 8028,
      "##題": 8029,
      "##締": 8030,
      "##巖": 8031,
      "##ῇ": 8032,
      "##埔": 8033,
      "##万": 8034,
      "##유": 8035,
      "##ﮭ": 8036,
      "##ﻔ": 8037,
      "##範": 8038,
      "##ང": 8039,
      "##棵": 8040,
      "##札": 8041,
      "##ഹ": 8042,
      "##脂": 8043,
      "##మ": 8044,
      "##鼠": 8045,
      "##箱": 8046,
      "##ซ": 8047,
      "##血": 8048,
      "##塘": 8049,
      "##赭": 8050,
      "##ẖ": 8051,
      "##တ": 8052,
      "##ە": 8053,
      "##ễ": 8054,
      "##棍": 8055,
      "##占": 8056,
      "##ེ": 8057,
      "##ᾷ": 8058,
      "##네": 8059,
      "##零": 8060,
      "##边": 8061,
      "##糊": 8062,
      "##백": 8063,
      "##የ": 8064,
      "##歩": 8065,
      "##실": 8066,
      "##야": 8067,
      "##甘": 8068,
      "##岭": 8069,
      "##ᶦ": 8070,
      "##紡": 8071,
      "##ぴ": 8072,
      "##ල": 8073,
      "##植": 8074,
      "##ゑ": 8075,
      "##憎": 8076,
      "##荻": 8077,
      "##ⵃ": 8078,
      "##ⵕ": 8079,
      "##寧": 8080,
      "##狂": 8081,
      "##ǭ": 8082,
      "##硝": 8083,
      "##苣": 8084,
      "##澤": 8085,
      "##ෝ": 8086,
      "##ව": 8087,
      "##秘": 8088,
      "##境": 8089,
      "##酸": 8090,
      "##発": 8091,
      "##滋": 8092,
      "##養": 8093,
      "##ේ": 8094,
      "##ශ": 8095,
      "##概": 8096,
      "##虛": 8097,
      "##崇": 8098,
      "##給": 8099,
      "##键": 8100,
      "##ſ": 8101,
      "##幻": 8102,
      "##辭": 8103,
      "##管": 8104,
      "##赤": 8105,
      "##壁": 8106,
      "##ῠ": 8107,
      "##빤": 8108,
      "##瓷": 8109,
      "##坑": 8110,
      "##ှ": 8111,
      "##虹": 8112,
      "##怖": 8113,
      "##蕨": 8114,
      "##Ш": 8115,
      "##壮": 8116,
      "##炼": 8117,
      "##去": 8118,
      "##猿": 8119,
      "##ੇ": 8120,
      "##ਵ": 8121,
      "##爺": 8122,
      "##정": 8123,
      "##Г": 8124,
      "##毘": 8125,
      "##葆": 8126,
      "##ằ": 8127,
      "##ɽ": 8128,
      "##減": 8129,
      "##ལ": 8130,
      "##歲": 8131,
      "##静": 8132,
      "##寂": 8133,
      "##岩": 8134,
      "##读": 8135,
      "##曦": 8136,
      "##仇": 8137,
      "##溢": 8138,
      "##건": 8139,
      "##ⵛ": 8140,
      "##感": 8141,
      "##謝": 8142,
      "##跖": 8143,
      "##吸": 8144,
      "##芬": 8145,
      "##ದ": 8146,
      "##背": 8147,
      "##薔": 8148,
      "##域": 8149,
      "##은": 8150,
      "##을": 8151,
      "##ặ": 8152,
      "##雙": 8153,
      "##한": 8154,
      "##민": 8155,
      "##렌": 8156,
      "##広": 8157,
      "##婆": 8158,
      "##果": 8159,
      "##孵": 8160,
      "##ჲ": 8161,
      "##ʙ": 8162,
      "##铭": 8163,
      "##选": 8164,
      "##呂": 8165,
      "##迪": 8166,
      "##領": 8167,
      "##В": 8168,
      "##閏": 8169,
      "##过": 8170,
      "##側": 8171,
      "##孟": 8172,
      "##堅": 8173,
      "##ģ": 8174,
      "##片": 8175,
      "##瞬": 8176,
      "##Ь": 8177,
      "##보": 8178,
      "##내": 8179,
      "##缽": 8180,
      "##踢": 8181,
      "##脚": 8182,
      "##센": 8183,
      "##터": 8184,
      "##엔": 8185,
      "##공": 8186,
      "##청": 8187,
      "##త": 8188,
      "##桥": 8189,
      "##丹": 8190,
      "##臺": 8191,
      "##詠": 8192,
      "##條": 8193,
      "##描": 8194,
      "##他": 8195,
      "##栄": 8196,
      "##銖": 8197,
      "##桃": 8198,
      "##孔": 8199,
      "##গ": 8200,
      "##祿": 8201,
      "##勳": 8202,
      "##ܼ": 8203,
      "##٧": 8204,
      "##沫": 8205,
      "##觀": 8206,
      "##騭": 8207,
      "##們": 8208,
      "##追": 8209,
      "##九": 8210,
      "##军": 8211,
      "##纵": 8212,
      "##驰": 8213,
      "##奔": 8214,
      "##規": 8215,
      "##添": 8216,
      "##財": 8217,
      "##歴": 8218,
      "##牧": 8219,
      "##ὔ": 8220,
      "##填": 8221,
      "##區": 8222,
      "##Т": 8223,
      "##盤": 8224,
      "##丽": 8225,
      "##萍": 8226,
      "##학": 8227,
      "##达": 8228,
      "##ᶷ": 8229,
      "##椰": 8230,
      "##Ě": 8231,
      "##過": 8232,
      "##廿": 8233,
      "##届": 8234,
      "##ප": 8235,
      "##綾": 8236,
      "##籌": 8237,
      "##巴": 8238,
      "##旺": 8239,
      "##溫": 8240,
      "##ھ": 8241,
      "##宣": 8242,
      "##扉": 8243,
      "##ḗ": 8244,
      "##歳": 8245,
      "##跳": 8246,
      "##還": 8247,
      "##例": 8248,
      "##闇": 8249,
      "##半": 8250,
      "##保": 8251,
      "##ሰ": 8252,
      "##銓": 8253,
      "##ཛ": 8254,
      "##彌": 8255,
      "##油": 8256,
      "##ṓ": 8257,
      "##豊": 8258,
      "##暁": 8259,
      "##問": 8260,
      "##派": 8261,
      "##堡": 8262,
      "##警": 8263,
      "##察": 8264,
      "##ᵀ": 8265,
      "##遺": 8266,
      "##愚": 8267,
      "##霰": 8268,
      "##弾": 8269,
      "##咆": 8270,
      "##哮": 8271,
      "##游": 8272,
      "##匠": 8273,
      "##颊": 8274,
      "##ᛞ": 8275,
      "##ᛗ": 8276,
      "##篋": 8277,
      "##ฤ": 8278,
      "##据": 8279,
      "##启": 8280,
      "##號": 8281,
      "##ჱ": 8282,
      "##稚": 8283,
      "##淹": 8284,
      "##寞": 8285,
      "##咖": 8286,
      "##啡": 8287,
      "##因": 8288,
      "##釗": 8289,
      "##陶": 8290,
      "##服": 8291,
      "##務": 8292,
      "##獅": 8293,
      "##ೇ": 8294,
      "##葵": 8295,
      "##步": 8296,
      "##翱": 8297,
      "##ለ": 8298,
      "##ẻ": 8299,
      "##夷": 8300,
      "##爾": 8301,
      "##ǽ": 8302,
      "##录": 8303,
      "##肃": 8304,
      "##没": 8305,
      "##悼": 8306,
      "##孛": 8307,
      "##股": 8308,
      "##份": 8309,
      "##弱": 8310,
      "##紹": 8311,
      "##ฎ": 8312,
      "##唐": 8313,
      "##符": 8314,
      "##ট": 8315,
      "##皿": 8316,
      "##敷": 8317,
      "##聘": 8318,
      "##頌": 8319,
      "##ደ": 8320,
      "##Ј": 8321,
      "##蠻": 8322,
      "##哲": 8323,
      "##狩": 8324,
      "##熙": 8325,
      "##廊": 8326,
      "##ḵ": 8327,
      "##ူ": 8328,
      "##卫": 8329,
      "##窓": 8330,
      "##ಟ": 8331,
      "##錬": 8332,
      "##ಭ": 8333,
      "##锡": 8334,
      "##蠕": 8335,
      "##嚣": 8336,
      "##鉦": 8337,
      "##ὣ": 8338,
      "##瓜": 8339,
      "##Ζ": 8340,
      "##ฝ": 8341,
      "##裂": 8342,
      "##楯": 8343,
      "##齐": 8344,
      "##妇": 8345,
      "##ܢ": 8346,
      "##溜": 8347,
      "##恥": 8348,
      "##菱": 8349,
      "##綯": 8350,
      "##ҷ": 8351,
      "##ӣ": 8352,
      "##爲": 8353,
      "##亀": 8354,
      "##छ": 8355,
      "##ሀ": 8356,
      "##풍": 8357,
      "##주": 8358,
      "##灼": 8359,
      "##証": 8360,
      "##髪": 8361,
      "##夤": 8362,
      "##ٌ": 8363,
      "##豆": 8364,
      "##늬": 8365,
      "##오": 8366,
      "##징": 8367,
      "##狛": 8368,
      "##入": 8369,
      "##వ": 8370,
      "##瀛": 8371,
      "##钦": 8372,
      "##날": 8373,
      "##秒": 8374,
      "##耕": 8375,
      "##破": 8376,
      "##暮": 8377,
      "##鞋": 8378,
      "##鲤": 8379,
      "##穗": 8380,
      "##靠": 8381,
      "##腿": 8382,
      "##峰": 8383,
      "##柱": 8384,
      "##향": 8385,
      "##句": 8386,
      "##镜": 8387,
      "##义": 8388,
      "##汇": 8389,
      "##级": 8390,
      "##纲": 8391,
      "##麗": 8392,
      "##圓": 8393,
      "##菇": 8394,
      "##办": 8395,
      "##拏": 8396,
      "##镗": 8397,
      "##چ": 8398,
      "##聃": 8399,
      "##劍": 8400,
      "##翹": 8401,
      "##ぉ": 8402,
      "##户": 8403,
      "##鉢": 8404,
      "##鍋": 8405,
      "##킨": 8406,
      "##ฆ": 8407,
      "##牡": 8408,
      "##疆": 8409,
      "##繹": 8410,
      "##漠": 8411,
      "##酥": 8412,
      "##梏": 8413,
      "##讐": 8414,
      "##ׂ": 8415,
      "##魄": 8416,
      "##莱": 8417,
      "##聯": 8418,
      "##ᛇ": 8419,
      "##ᛋ": 8420,
      "##ᚻ": 8421,
      "##ᚱ": 8422,
      "##罠": 8423,
      "##湾": 8424,
      "##가": 8425,
      "##쇼": 8426,
      "##威": 8427,
      "##კ": 8428,
      "##予": 8429,
      "##糸": 8430,
      "##則": 8431,
      "##即": 8432,
      "##ぇ": 8433,
      "##革": 8434,
      "##组": 8435,
      "##계": 8436,
      "##奴": 8437,
      "##给": 8438,
      "##富": 8439,
      "##ྤ": 8440,
      "##烙": 8441,
      "##悦": 8442,
      "##ೋ": 8443,
      "##ಬ": 8444,
      "##產": 8445,
      "##閃": 8446,
      "##唯": 8447,
      "##尊": 8448,
      "##磲": 8449,
      "##碗": 8450,
      "##誡": 8451,
      "##週": 8452,
      "##毬": 8453,
      "##格": 8454,
      "##ֽ": 8455,
      "##賊": 8456,
      "##Х": 8457,
      "##製": 8458,
      "##飾": 8459,
      "##椒": 8460,
      "##沌": 8461,
      "##温": 8462,
      "##臨": 8463,
      "##麾": 8464,
      "##Ｘ": 8465,
      "##准": 8466,
      "##伐": 8467,
      "##𒀳": 8468,
      "##寔": 8469,
      "##坚": 8470,
      "##ኢ": 8471,
      "##ት": 8472,
      "##ዮ": 8473,
      "##ጵ": 8474,
      "##ያ": 8475,
      "##驁": 8476,
      "##运": 8477,
      "##庵": 8478,
      "##奐": 8479,
      "##瑪": 8480,
      "##竇": 8481,
      "##矩": 8482,
      "##로": 8483,
      "##파": 8484,
      "##抵": 8485,
      "##縄": 8486,
      "##쳐": 8487,
      "##서": 8488,
      "##짓": 8489,
      "##말": 8490,
      "##獵": 8491,
      "##箭": 8492,
      "##愍": 8493,
      "##發": 8494,
      "##ฮ": 8495,
      "##커": 8496,
      "##버": 8497,
      "##弓": 8498,
      "##鸿": 8499,
      "##만": 8500,
      "##바": 8501,
      "##봐": 8502,
      "##ѡ": 8503,
      "##綜": 8504,
      "##Д": 8505,
      "##灰": 8506,
      "##肖": 8507,
      "##节": 8508,
      "##覚": 8509,
      "##隣": 8510,
      "##梓": 8511,
      "##Є": 8512,
      "##Ѯ": 8513,
      "##宸": 8514,
      "##传": 8515,
      "##ჯ": 8516,
      "##颂": 8517,
      "##盗": 8518,
      "##敵": 8519,
      "##广": 8520,
      "##蕉": 8521,
      "##极": 8522,
      "##图": 8523,
      "##미": 8524,
      "##論": 8525,
      "##荪": 8526,
      "##ƿ": 8527,
      "##覺": 8528,
      "##菉": 8529,
      "##弁": 8530,
      "##当": 8531,
      "##暖": 8532,
      "##卓": 8533,
      "##妍": 8534,
      "##继": 8535,
      "##硕": 8536,
      "##悫": 8537,
      "##莎": 8538,
      "##臘": 8539,
      "##黙": 8540,
      "##駆": 8541,
      "##ἲ": 8542,
      "##姬": 8543,
      "##종": 8544,
      "##합": 8545,
      "##운": 8546,
      "##동": 8547,
      "##欠": 8548,
      "##燃": 8549,
      "##१": 8550,
      "##創": 8551,
      "##ỉ": 8552,
      "##營": 8553,
      "##延": 8554,
      "##း": 8555,
      "##ျ": 8556,
      "##併": 8557,
      "##람": 8558,
      "##났": 8559,
      "##容": 8560,
      "##鮮": 8561,
      "##斉": 8562,
      "##泗": 8563,
      "##እ": 8564,
      "##置": 8565,
      "##妃": 8566,
      "##駒": 8567,
      "##棋": 8568,
      "##囂": 8569,
      "##塞": 8570,
      "##恒": 8571,
      "##ɓ": 8572,
      "##柔": 8573,
      "##开": 8574,
      "##浚": 8575,
      "##ළ": 8576,
      "##妻": 8577,
      "##辆": 8578,
      "##莘": 8579,
      "##圣": 8580,
      "##雅": 8581,
      "##蒭": 8582,
      "##ဘ": 8583,
      "##က": 8584,
      "##ǰ": 8585,
      "##ና": 8586,
      "##陛": 8587,
      "##ਿ": 8588,
      "##ੰ": 8589,
      "##ਘ": 8590,
      "##瘡": 8591,
      "##鮫": 8592,
      "##ɸ": 8593,
      "##銳": 8594,
      "##ষ": 8595,
      "##독": 8596,
      "##립": 8597,
      "##병": 8598,
      "##更": 8599,
      "##近": 8600,
      "##ѥ": 8601,
      "##Œ": 8602,
      "##帖": 8603,
      "##岚": 8604,
      "##狱": 8605,
      "##鷓": 8606,
      "##鴣": 8607,
      "##亡": 8608,
      "##ဝ": 8609,
      "##ယ": 8610,
      "##怒": 8611,
      "##柏": 8612,
      "##宇": 8613,
      "##Ａ": 8614,
      "##Ｌ": 8615,
      "##粥": 8616,
      "##吞": 8617,
      "##択": 8618,
      "##厩": 8619,
      "##竺": 8620,
      "##允": 8621,
      "##煜": 8622,
      "##獻": 8623,
      "##Ս": 8624,
      "##Հ": 8625,
      "##聲": 8626,
      "##簿": 8627,
      "##靈": 8628,
      "##煙": 8629,
      "##Э": 8630,
      "##炸": 8631,
      "##桧": 8632,
      "##ᠰ": 8633,
      "##차": 8634,
      "##贵": 8635,
      "##誘": 8636,
      "##拐": 8637,
      "##譌": 8638,
      "##Ḣ": 8639,
      "##ྣ": 8640,
      "##貫": 8641,
      "##恵": 8642,
      "##ந": 8643,
      "##앤": 8644,
      "##屿": 8645,
      "##决": 8646,
      "##咙": 8647,
      "##ヂ": 8648,
      "##ཡ": 8649,
      "##讀": 8650,
      "##闕": 8651,
      "##怎": 8652,
      "##么": 8653,
      "##燈": 8654,
      "##Ꮝ": 8655,
      "##Ꮿ": 8656,
      "##평": 8657,
      "##誠": 8658,
      "##𐀁": 8659,
      "##𐀫": 8660,
      "##讼": 8661,
      "##得": 8662,
      "##玩": 8663,
      "##厂": 8664,
      "##ֻ": 8665,
      "##璉": 8666,
      "##鬥": 8667,
      "##囃": 8668,
      "##委": 8669,
      "##県": 8670,
      "##浜": 8671,
      "##판": 8672,
      "##圻": 8673,
      "##ـ": 8674,
      "##些": 8675,
      "##终": 8676,
      "##ῑ": 8677,
      "##Đ": 8678,
      "##艺": 8679,
      "##蘅": 8680,
      "##ో": 8681,
      "##బ": 8682,
      "##살": 8683,
      "##强": 8684,
      "##ⵖ": 8685,
      "##ਂ": 8686,
      "##ਝ": 8687,
      "##碩": 8688,
      "##額": 8689,
      "##駙": 8690,
      "##渠": 8691,
      "##ꦸ": 8692,
      "##ꦲ": 8693,
      "##ꦂ": 8694,
      "##ꦠ": 8695,
      "##涙": 8696,
      "##ϑ": 8697,
      "##淵": 8698,
      "##ṵ": 8699,
      "##ḭ": 8700,
      "##籃": 8701,
      "##嬢": 8702,
      "##攻": 8703,
      "##Ē": 8704,
      "##拘": 8705,
      "##ከ": 8706,
      "##ነ": 8707,
      "##Ｍ": 8708,
      "##必": 8709,
      "##稽": 8710,
      "##臚": 8711,
      "##観": 8712,
      "##測": 8713,
      "##拖": 8714,
      "##ٔ": 8715,
      "##鈍": 8716,
      "##罰": 8717,
      "##態": 8718,
      "##祠": 8719,
      "##ᠨ": 8720,
      "##ᠵ": 8721,
      "##嵐": 8722,
      "##栽": 8723,
      "##嶺": 8724,
      "##沒": 8725,
      "##灾": 8726,
      "##恢": 8727,
      "##援": 8728,
      "##ឹ": 8729,
      "##庁": 8730,
      "##इ": 8731,
      "##he": 8732,
      "the": 8733,
      "##er": 8734,
      "##in": 8735,
      "##on": 8736,
      "##ed": 8737,
      "##nd": 8738,
      "##or": 8739,
      "##at": 8740,
      "##es": 8741,
      "##ar": 8742,
      "##en": 8743,
      "of": 8744,
      "##an": 8745,
      "##al": 8746,
      "in": 8747,
      "##ing": 8748,
      "##it": 8749,
      "##as": 8750,
      "##is": 8751,
      "and": 8752,
      "to": 8753,
      "##ic": 8754,
      "##ou": 8755,
      "##ion": 8756,
      "##re": 8757,
      "##om": 8758,
      "##il": 8759,
      "##el": 8760,
      "##ec": 8761,
      "##ent": 8762,
      "th": 8763,
      "##st": 8764,
      "##am": 8765,
      "##et": 8766,
      "##ro": 8767,
      "##ad": 8768,
      "##ac": 8769,
      "was": 8770,
      "##ur": 8771,
      "##ol": 8772,
      "on": 8773,
      "The": 8774,
      "##le": 8775,
      "##ly": 8776,
      "##ir": 8777,
      "for": 8778,
      "##id": 8779,
      "@-": 8780,
      "@-@": 8781,
      "##ter": 8782,
      "##iv": 8783,
      "##ig": 8784,
      "##ot": 8785,
      "as": 8786,
      "##ut": 8787,
      "##ow": 8788,
      "##im": 8789,
      "##ith": 8790,
      "##ay": 8791,
      "##em": 8792,
      "st": 8793,
      "##ation": 8794,
      "with": 8795,
      "be": 8796,
      "that": 8797,
      "##ers": 8798,
      "wh": 8799,
      "re": 8800,
      "##ts": 8801,
      "##us": 8802,
      "by": 8803,
      "##ch": 8804,
      "##th": 8805,
      "##ce": 8806,
      "al": 8807,
      "##ver": 8808,
      "is": 8809,
      "con": 8810,
      "##ul": 8811,
      "at": 8812,
      "##os": 8813,
      "##and": 8814,
      "##ain": 8815,
      "19": 8816,
      "an": 8817,
      "##her": 8818,
      "fr": 8819,
      "##av": 8820,
      "##ag": 8821,
      "##um": 8822,
      "##est": 8823,
      "his": 8824,
      "##od": 8825,
      "##ess": 8826,
      "##ct": 8827,
      "he": 8828,
      "from": 8829,
      "##ri": 8830,
      "com": 8831,
      "##un": 8832,
      "20": 8833,
      "##ap": 8834,
      "pro": 8835,
      "##op": 8836,
      "##ere": 8837,
      "##ill": 8838,
      "##ew": 8839,
      "##ist": 8840,
      "su": 8841,
      "##igh": 8842,
      "In": 8843,
      "##ear": 8844,
      "##ies": 8845,
      "##ect": 8846,
      "##ber": 8847,
      "##ld": 8848,
      "##ard": 8849,
      "de": 8850,
      "##if": 8851,
      "##all": 8852,
      "were": 8853,
      "##ak": 8854,
      "##ich": 8855,
      "##oc": 8856,
      "##ate": 8857,
      "##ab": 8858,
      "##pp": 8859,
      "it": 8860,
      "se": 8861,
      "ex": 8862,
      "##ong": 8863,
      "##art": 8864,
      "##ud": 8865,
      "##ort": 8866,
      "or": 8867,
      "ch": 8868,
      "##gh": 8869,
      "##ated": 8870,
      "pl": 8871,
      "sh": 8872,
      "##ity": 8873,
      "##se": 8874,
      "##ive": 8875,
      "##ame": 8876,
      "##ore": 8877,
      "##ant": 8878,
      "had": 8879,
      "##our": 8880,
      "##ack": 8881,
      "St": 8882,
      "##rou": 8883,
      "##ip": 8884,
      "which": 8885,
      "##ast": 8886,
      "##ge": 8887,
      "##ov": 8888,
      "##ian": 8889,
      "pr": 8890,
      "are": 8891,
      "##ment": 8892,
      "##ell": 8893,
      "##ial": 8894,
      "not": 8895,
      "##ost": 8896,
      "sp": 8897,
      "##nt": 8898,
      "tr": 8899,
      "##qu": 8900,
      "##ia": 8901,
      "##ord": 8902,
      "##ust": 8903,
      "##ary": 8904,
      "##pt": 8905,
      "##ther": 8906,
      "##ine": 8907,
      "##rit": 8908,
      "le": 8909,
      "##ical": 8910,
      "##ave": 8911,
      "rec": 8912,
      "Ch": 8913,
      "##ight": 8914,
      "##pl": 8915,
      "##ie": 8916,
      "200": 8917,
      "##out": 8918,
      "##cc": 8919,
      "inc": 8920,
      "##fter": 8921,
      "##ould": 8922,
      "but": 8923,
      "fir": 8924,
      "##ish": 8925,
      "##ous": 8926,
      "##ions": 8927,
      "##ff": 8928,
      "int": 8929,
      "cont": 8930,
      "ar": 8931,
      "whe": 8932,
      "##so": 8933,
      "##ure": 8934,
      "her": 8935,
      "##og": 8936,
      "##ue": 8937,
      "first": 8938,
      "cl": 8939,
      "##ub": 8940,
      "##wo": 8941,
      "##per": 8942,
      "its": 8943,
      "##ass": 8944,
      "their": 8945,
      "##ign": 8946,
      "##ok": 8947,
      "##ork": 8948,
      "##orm": 8949,
      "res": 8950,
      "##ru": 8951,
      "##ra": 8952,
      "##oll": 8953,
      "##ome": 8954,
      "##ater": 8955,
      "en": 8956,
      "also": 8957,
      "##00": 8958,
      "ab": 8959,
      "##ond": 8960,
      "ad": 8961,
      "##age": 8962,
      "##ide": 8963,
      "##ry": 8964,
      "He": 8965,
      "##mer": 8966,
      "##hed": 8967,
      "##ire": 8968,
      "rel": 8969,
      "##ans": 8970,
      "##ime": 8971,
      "per": 8972,
      "un": 8973,
      "Th": 8974,
      "one": 8975,
      "have": 8976,
      "sc": 8977,
      "##du": 8978,
      "##end": 8979,
      "##ally": 8980,
      "##ence": 8981,
      "##own": 8982,
      "##ound": 8983,
      "18": 8984,
      "##ile": 8985,
      "##ance": 8986,
      "@.": 8987,
      "@.@": 8988,
      "two": 8989,
      "##ition": 8990,
      "##ough": 8991,
      "who": 8992,
      "##iz": 8993,
      "##ree": 8994,
      "##uring": 8995,
      "been": 8996,
      "Al": 8997,
      "bec": 8998,
      "has": 8999,
      "ag": 9000,
      "##ely": 9001,
      "app": 9002,
      "##pr": 9003,
      "201": 9004,
      "@,": 9005,
      "@,@": 9006,
      "all": 9007,
      "dis": 9008,
      "##act": 9009,
      "ser": 9010,
      "this": 9011,
      "##lud": 9012,
      "##ey": 9013,
      "##ory": 9014,
      "##ice": 9015,
      "year": 9016,
      "##ations": 9017,
      "##ember": 9018,
      "##ach": 9019,
      "off": 9020,
      "after": 9021,
      "##ark": 9022,
      "part": 9023,
      "comp": 9024,
      "It": 9025,
      "des": 9026,
      "play": 9027,
      "over": 9028,
      "##ace": 9029,
      "##land": 9030,
      "out": 9031,
      "they": 9032,
      "att": 9033,
      "##ade": 9034,
      "##ik": 9035,
      "##eas": 9036,
      "##ric": 9037,
      "other": 9038,
      "##ib": 9039,
      "man": 9040,
      "##ult": 9041,
      "##ens": 9042,
      "im": 9043,
      "##over": 9044,
      "includ": 9045,
      "##ail": 9046,
      "##ced": 9047,
      "##ee": 9048,
      "##urn": 9049,
      "##wn": 9050,
      "would": 9051,
      "us": 9052,
      "up": 9053,
      "##ind": 9054,
      "##ang": 9055,
      "time": 9056,
      "##man": 9057,
      "into": 9058,
      "pre": 9059,
      "##ount": 9060,
      "##ward": 9061,
      "##oin": 9062,
      "him": 9063,
      "##ite": 9064,
      "##oy": 9065,
      "On": 9066,
      "Un": 9067,
      "##ates": 9068,
      "she": 9069,
      "##een": 9070,
      "ev": 9071,
      "##ng": 9072,
      "##ilm": 9073,
      "##able": 9074,
      "##nder": 9075,
      "##ited": 9076,
      "##amp": 9077,
      "##ied": 9078,
      "##ever": 9079,
      "##ction": 9080,
      "comm": 9081,
      "##ors": 9082,
      "inter": 9083,
      "##ose": 9084,
      "##ents": 9085,
      "##ons": 9086,
      "##rough": 9087,
      "##les": 9088,
      "##ood": 9089,
      "##aw": 9090,
      "##ces": 9091,
      "more": 9092,
      "work": 9093,
      "Ar": 9094,
      "##old": 9095,
      "##ock": 9096,
      "Fr": 9097,
      "##form": 9098,
      "##ings": 9099,
      "##one": 9100,
      "##vel": 9101,
      "##ick": 9102,
      "##etw": 9103,
      "##ild": 9104,
      "new": 9105,
      "##eat": 9106,
      "sec": 9107,
      "##ft": 9108,
      "when": 9109,
      "##inal": 9110,
      "film": 9111,
      "cons": 9112,
      "##fer": 9113,
      "##ious": 9114,
      "##way": 9115,
      "##ake": 9116,
      "Mar": 9117,
      "##iss": 9118,
      "##aus": 9119,
      "##att": 9120,
      "##reat": 9121,
      "##round": 9122,
      "##eg": 9123,
      "##rop": 9124,
      "rem": 9125,
      "##ict": 9126,
      "##rib": 9127,
      "##ss": 9128,
      "##ved": 9129,
      "##ob": 9130,
      "dec": 9131,
      "car": 9132,
      "##gan": 9133,
      "te": 9134,
      "during": 9135,
      "##ual": 9136,
      "##orth": 9137,
      "again": 9138,
      "##port": 9139,
      "##ubl": 9140,
      "most": 9141,
      "fl": 9142,
      "game": 9143,
      "##eld": 9144,
      "char": 9145,
      "##oth": 9146,
      "them": 9147,
      "##hip": 9148,
      "199": 9149,
      "only": 9150,
      "##ason": 9151,
      "##ix": 9152,
      "ear": 9153,
      "##etween": 9154,
      "##ollow": 9155,
      "than": 9156,
      "##ered": 9157,
      "##ep": 9158,
      "##ational": 9159,
      "##ev": 9160,
      "New": 9161,
      "about": 9162,
      "produ": 9163,
      "cent": 9164,
      "ret": 9165,
      "##tern": 9166,
      "kn": 9167,
      "##ug": 9168,
      "song": 9169,
      "can": 9170,
      "##fore": 9171,
      "##outh": 9172,
      "between": 9173,
      "later": 9174,
      "##ted": 9175,
      "under": 9176,
      "##orn": 9177,
      "##ters": 9178,
      "##eb": 9179,
      "three": 9180,
      "##hn": 9181,
      "##ank": 9182,
      "##ook": 9183,
      "##iew": 9184,
      "##aid": 9185,
      "##ath": 9186,
      "through": 9187,
      "##orld": 9188,
      "num": 9189,
      "releas": 9190,
      "acc": 9191,
      "while": 9192,
      "end": 9193,
      "##meric": 9194,
      "Americ": 9195,
      "act": 9196,
      "##ral": 9197,
      "pos": 9198,
      "##ex": 9199,
      "sub": 9200,
      "##ph": 9201,
      "so": 9202,
      "ass": 9203,
      "##ular": 9204,
      "where": 9205,
      "bu": 9206,
      "day": 9207,
      "reg": 9208,
      "form": 9209,
      "second": 9210,
      "Com": 9211,
      "##ener": 9212,
      "##oun": 9213,
      "##ision": 9214,
      "made": 9215,
      "##ames": 9216,
      "##ived": 9217,
      "##te": 9218,
      "##ve": 9219,
      "record": 9220,
      "def": 9221,
      "ac": 9222,
      "000": 9223,
      "##red": 9224,
      "##bum": 9225,
      "four": 9226,
      "##als": 9227,
      "follow": 9228,
      "##ton": 9229,
      "##ating": 9230,
      "season": 9231,
      "##ool": 9232,
      "bas": 9233,
      "ep": 9234,
      "am": 9235,
      "some": 9236,
      "##son": 9237,
      "such": 9238,
      "ind": 9239,
      "pe": 9240,
      "mov": 9241,
      "##ished": 9242,
      "##ept": 9243,
      "before": 9244,
      "##ained": 9245,
      "##hes": 9246,
      "mus": 9247,
      "there": 9248,
      "mon": 9249,
      "writ": 9250,
      "As": 9251,
      "##ics": 9252,
      "Jo": 9253,
      "spec": 9254,
      "10": 9255,
      "##io": 9256,
      "sy": 9257,
      "years": 9258,
      "team": 9259,
      "At": 9260,
      "##ont": 9261,
      "##ike": 9262,
      "##ode": 9263,
      "Sh": 9264,
      "This": 9265,
      "lar": 9266,
      "##ning": 9267,
      "gr": 9268,
      "album": 9269,
      "Sp": 9270,
      "##ected": 9271,
      "Pr": 9272,
      "##ily": 9273,
      "##owever": 9274,
      "bl": 9275,
      "el": 9276,
      "used": 9277,
      "supp": 9278,
      "call": 9279,
      "sur": 9280,
      "##ific": 9281,
      "##ery": 9282,
      "##hen": 9283,
      "high": 9284,
      "##ury": 9285,
      "##ection": 9286,
      "publ": 9287,
      "being": 9288,
      "epis": 9289,
      "##anc": 9290,
      "##ll": 9291,
      "##aj": 9292,
      "then": 9293,
      "##air": 9294,
      "An": 9295,
      "inv": 9296,
      "##velop": 9297,
      "loc": 9298,
      "me": 9299,
      "do": 9300,
      "br": 9301,
      "against": 9302,
      "17": 9303,
      "##other": 9304,
      "##ement": 9305,
      "qu": 9306,
      "##au": 9307,
      "##ten": 9308,
      "##ife": 9309,
      "pres": 9310,
      "##ower": 9311,
      "number": 9312,
      "After": 9313,
      "charac": 9314,
      "sever": 9315,
      "co": 9316,
      "add": 9317,
      "show": 9318,
      "set": 9319,
      "##ane": 9320,
      "##ince": 9321,
      "Brit": 9322,
      "became": 9323,
      "air": 9324,
      "we": 9325,
      "##ause": 9326,
      "perform": 9327,
      "lead": 9328,
      "no": 9329,
      "##ron": 9330,
      "including": 9331,
      "sing": 9332,
      "##ines": 9333,
      "United": 9334,
      "found": 9335,
      "##erm": 9336,
      "well": 9337,
      "Sc": 9338,
      "back": 9339,
      "##gr": 9340,
      "##ale": 9341,
      "##ised": 9342,
      "both": 9343,
      "cap": 9344,
      "15": 9345,
      "pol": 9346,
      "12": 9347,
      "198": 9348,
      "series": 9349,
      "str": 9350,
      "##ier": 9351,
      "rev": 9352,
      "##ise": 9353,
      "war": 9354,
      "##ober": 9355,
      "##uc": 9356,
      "##its": 9357,
      "Br": 9358,
      "Wh": 9359,
      "##pen": 9360,
      "##itt": 9361,
      "##ures": 9362,
      "appear": 9363,
      "She": 9364,
      "##fl": 9365,
      "##ivers": 9366,
      "main": 9367,
      "194": 9368,
      "##are": 9369,
      "min": 9370,
      "##iet": 9371,
      "##overn": 9372,
      "##oad": 9373,
      "dr": 9374,
      "did": 9375,
      "##ann": 9376,
      "##ole": 9377,
      "##az": 9378,
      "##olog": 9379,
      "##led": 9380,
      "War": 9381,
      "go": 9382,
      "##roup": 9383,
      "develop": 9384,
      "met": 9385,
      "Le": 9386,
      "##elf": 9387,
      "##ert": 9388,
      "##ities": 9389,
      "long": 9390,
      "Eng": 9391,
      "##any": 9392,
      "##ross": 9393,
      "em": 9394,
      "mill": 9395,
      "##ird": 9396,
      "##ful": 9397,
      "John": 9398,
      "ship": 9399,
      "mat": 9400,
      "episode": 9401,
      "##ley": 9402,
      "##ield": 9403,
      "dire": 9404,
      "ext": 9405,
      "said": 9406,
      "cre": 9407,
      "stud": 9408,
      "##uch": 9409,
      "Cl": 9410,
      "many": 9411,
      "bro": 9412,
      "##ative": 9413,
      "16": 9414,
      "could": 9415,
      "rece": 9416,
      "##ash": 9417,
      "orig": 9418,
      "contin": 9419,
      "several": 9420,
      "American": 9421,
      "##iver": 9422,
      "Ind": 9423,
      "##though": 9424,
      "##ase": 9425,
      "dif": 9426,
      "##eng": 9427,
      "##ah": 9428,
      "##ather": 9429,
      "pop": 9430,
      "inst": 9431,
      "##ouse": 9432,
      "##emb": 9433,
      "known": 9434,
      "##oot": 9435,
      "##sp": 9436,
      "197": 9437,
      "Aust": 9438,
      "##der": 9439,
      "##ins": 9440,
      "11": 9441,
      "196": 9442,
      "##ually": 9443,
      "conc": 9444,
      "par": 9445,
      "##eed": 9446,
      "feat": 9447,
      "##up": 9448,
      "##iam": 9449,
      "##ident": 9450,
      "##erson": 9451,
      "##ks": 9452,
      "ob": 9453,
      "##ued": 9454,
      "sm": 9455,
      "return": 9456,
      "began": 9457,
      "any": 9458,
      "##hy": 9459,
      "design": 9460,
      "##row": 9461,
      "prov": 9462,
      "unt": 9463,
      "near": 9464,
      "compl": 9465,
      "desc": 9466,
      "sign": 9467,
      "Bl": 9468,
      "##chool": 9469,
      "##ism": 9470,
      "##ople": 9471,
      "est": 9472,
      "##ange": 9473,
      "##aking": 9474,
      "##0s": 9475,
      "trans": 9476,
      "exp": 9477,
      "##my": 9478,
      "##ccess": 9479,
      "##ty": 9480,
      "##ern": 9481,
      "run": 9482,
      "early": 9483,
      "##ets": 9484,
      "art": 9485,
      "##ized": 9486,
      "dist": 9487,
      "##enn": 9488,
      "music": 9489,
      "own": 9490,
      "you": 9491,
      "##ided": 9492,
      "released": 9493,
      "until": 9494,
      "called": 9495,
      "eff": 9496,
      "US": 9497,
      "##imes": 9498,
      "##ull": 9499,
      "##rap": 9500,
      "bel": 9501,
      "Con": 9502,
      "##ists": 9503,
      "##els": 9504,
      "resp": 9505,
      "pass": 9506,
      "##ured": 9507,
      "For": 9508,
      "##stem": 9509,
      "##une": 9510,
      "##ars": 9511,
      "fin": 9512,
      "May": 9513,
      "##ially": 9514,
      "##ution": 9515,
      "prev": 9516,
      "disc": 9517,
      "crit": 9518,
      "col": 9519,
      "##osed": 9520,
      "gener": 9521,
      "along": 9522,
      "direct": 9523,
      "sl": 9524,
      "##ium": 9525,
      "Car": 9526,
      "Ger": 9527,
      "million": 9528,
      "British": 9529,
      "##ax": 9530,
      "Tr": 9531,
      "group": 9532,
      "offic": 9533,
      "13": 9534,
      "fam": 9535,
      "##ession": 9536,
      "##ajor": 9537,
      "these": 9538,
      "mod": 9539,
      "imp": 9540,
      "may": 9541,
      "##und": 9542,
      "Ad": 9543,
      "open": 9544,
      "mil": 9545,
      "poin": 9546,
      "##ains": 9547,
      "land": 9548,
      "hist": 9549,
      "count": 9550,
      "Aug": 9551,
      "##ently": 9552,
      "##ments": 9553,
      "govern": 9554,
      "sim": 9555,
      "Sept": 9556,
      "success": 9557,
      "September": 9558,
      "August": 9559,
      "##amed": 9560,
      "oper": 9561,
      "World": 9562,
      "gu": 9563,
      "attack": 9564,
      "##ible": 9565,
      "States": 9566,
      "down": 9567,
      "use": 9568,
      "same": 9569,
      "batt": 9570,
      "##wards": 9571,
      "All": 9572,
      "describ": 9573,
      "people": 9574,
      "##aced": 9575,
      "character": 9576,
      "because": 9577,
      "##yp": 9578,
      "14": 9579,
      "##aining": 9580,
      "serv": 9581,
      "##cept": 9582,
      "like": 9583,
      "##ired": 9584,
      "arr": 9585,
      "Ju": 9586,
      "##ven": 9587,
      "Is": 9588,
      "##ended": 9589,
      "Col": 9590,
      "Pl": 9591,
      "around": 9592,
      "##ner": 9593,
      "dep": 9594,
      "km": 9595,
      "though": 9596,
      "##aving": 9597,
      "win": 9598,
      "##ues": 9599,
      "195": 9600,
      "Austral": 9601,
      "const": 9602,
      "took": 9603,
      "occ": 9604,
      "##erv": 9605,
      "##ting": 9606,
      "Oct": 9607,
      "German": 9608,
      "##por": 9609,
      "ann": 9610,
      "Gr": 9611,
      "##ruct": 9612,
      "Nov": 9613,
      "wee": 9614,
      "id": 9615,
      "north": 9616,
      "following": 9617,
      "six": 9618,
      "##ove": 9619,
      "193": 9620,
      "However": 9621,
      "Pro": 9622,
      "system": 9623,
      "##uss": 9624,
      "##gg": 9625,
      "adv": 9626,
      "final": 9627,
      "class": 9628,
      "received": 9629,
      "head": 9630,
      "October": 9631,
      "##ives": 9632,
      "##ects": 9633,
      "prom": 9634,
      "consid": 9635,
      "##ility": 9636,
      "complet": 9637,
      "support": 9638,
      "##ically": 9639,
      "Dec": 9640,
      "191": 9641,
      "state": 9642,
      "ever": 9643,
      "##ink": 9644,
      "each": 9645,
      "##res": 9646,
      "##ison": 9647,
      "##ret": 9648,
      "##raft": 9649,
      "five": 9650,
      "build": 9651,
      "aut": 9652,
      "century": 9653,
      "York": 9654,
      "area": 9655,
      "var": 9656,
      "They": 9657,
      "##ina": 9658,
      "small": 9659,
      "##ately": 9660,
      "will": 9661,
      "##oss": 9662,
      "##ox": 9663,
      "North": 9664,
      "partic": 9665,
      "##iving": 9666,
      "##ored": 9667,
      "start": 9668,
      "By": 9669,
      "##ians": 9670,
      "June": 9671,
      "city": 9672,
      "##ject": 9673,
      "##cl": 9674,
      "##ording": 9675,
      "Jan": 9676,
      "Chr": 9677,
      "life": 9678,
      "mar": 9679,
      "Har": 9680,
      "##ene": 9681,
      "##sc": 9682,
      "contro": 9683,
      "major": 9684,
      "public": 9685,
      "King": 9686,
      "##ission": 9687,
      "July": 9688,
      "band": 9689,
      "vers": 9690,
      "November": 9691,
      "##med": 9692,
      "coll": 9693,
      "##omet": 9694,
      "##urch": 9695,
      "Comm": 9696,
      "##inc": 9697,
      "Can": 9698,
      "##ble": 9699,
      "Will": 9700,
      "ent": 9701,
      "##ute": 9702,
      "since": 9703,
      "world": 9704,
      "med": 9705,
      "##ean": 9706,
      "single": 9707,
      "Apr": 9708,
      "rest": 9709,
      "April": 9710,
      "##oard": 9711,
      "Mc": 9712,
      "det": 9713,
      "##uary": 9714,
      "fe": 9715,
      "##lish": 9716,
      "March": 9717,
      "just": 9718,
      "result": 9719,
      "red": 9720,
      "##enc": 9721,
      "Ed": 9722,
      "##ural": 9723,
      "##hest": 9724,
      "##ried": 9725,
      "##aim": 9726,
      "##ively": 9727,
      "##gin": 9728,
      "30": 9729,
      "##ilt": 9730,
      "differ": 9731,
      "hel": 9732,
      "allow": 9733,
      "##ants": 9734,
      "turn": 9735,
      "Or": 9736,
      "##ext": 9737,
      "last": 9738,
      "##idge": 9739,
      "left": 9740,
      "##ague": 9741,
      "large": 9742,
      "##get": 9743,
      "line": 9744,
      "South": 9745,
      "##ales": 9746,
      "south": 9747,
      "##ified": 9748,
      "Bro": 9749,
      "During": 9750,
      "Ge": 9751,
      "##ke": 9752,
      "##avy": 9753,
      "book": 9754,
      "school": 9755,
      "25": 9756,
      "December": 9757,
      "Ph": 9758,
      "third": 9759,
      "incre": 9760,
      "##par": 9761,
      "##ined": 9762,
      "month": 9763,
      "due": 9764,
      "appro": 9765,
      "played": 9766,
      "Re": 9767,
      "##..": 9768,
      "much": 9769,
      "event": 9770,
      "another": 9771,
      "if": 9772,
      "care": 9773,
      "##ench": 9774,
      "January": 9775,
      "##rote": 9776,
      "included": 9777,
      "192": 9778,
      "##ention": 9779,
      "what": 9780,
      "##by": 9781,
      "##ient": 9782,
      "##ograp": 9783,
      "based": 9784,
      "place": 9785,
      "##aged": 9786,
      "II": 9787,
      "##ped": 9788,
      "##ony": 9789,
      "government": 9790,
      "##side": 9791,
      "##apan": 9792,
      "Eu": 9793,
      "expl": 9794,
      "ph": 9795,
      "person": 9796,
      "##ling": 9797,
      "Fl": 9798,
      "wrote": 9799,
      "cr": 9800,
      "When": 9801,
      "track": 9802,
      "camp": 9803,
      "old": 9804,
      "tit": 9805,
      "##alf": 9806,
      "bre": 9807,
      "death": 9808,
      "name": 9809,
      "##ott": 9810,
      "prot": 9811,
      "##ages": 9812,
      "Japan": 9813,
      "report": 9814,
      "short": 9815,
      "...": 9816,
      "##ience": 9817,
      "won": 9818,
      "child": 9819,
      "larg": 9820,
      "kill": 9821,
      "##ideo": 9822,
      "power": 9823,
      "story": 9824,
      "##ody": 9825,
      "review": 9826,
      "##oman": 9827,
      "##ital": 9828,
      "vis": 9829,
      "##ats": 9830,
      "conv": 9831,
      "home": 9832,
      "led": 9833,
      "Be": 9834,
      "##ps": 9835,
      "gun": 9836,
      "requ": 9837,
      "described": 9838,
      "previous": 9839,
      "cour": 9840,
      "##ides": 9841,
      "El": 9842,
      "progr": 9843,
      "family": 9844,
      "De": 9845,
      "way": 9846,
      "##tain": 9847,
      "eng": 9848,
      "##urr": 9849,
      "##urther": 9850,
      "named": 9851,
      "now": 9852,
      "Mus": 9853,
      "dem": 9854,
      "Gu": 9855,
      "del": 9856,
      "##ister": 9857,
      "rep": 9858,
      "men": 9859,
      "##iven": 9860,
      "even": 9861,
      "##ilar": 9862,
      "##embers": 9863,
      "##omin": 9864,
      "make": 9865,
      "##reen": 9866,
      "##oute": 9867,
      "##ress": 9868,
      "port": 9869,
      "##iversity": 9870,
      "##iod": 9871,
      "attem": 9872,
      "##aff": 9873,
      "##ested": 9874,
      "100": 9875,
      "##ivision": 9876,
      "##ior": 9877,
      "repl": 9878,
      "##itions": 9879,
      "opp": 9880,
      "leg": 9881,
      "games": 9882,
      "##ached": 9883,
      "command": 9884,
      "term": 9885,
      "hand": 9886,
      "##ival": 9887,
      "poss": 9888,
      "dam": 9889,
      "belie": 9890,
      "very": 9891,
      "And": 9892,
      "##ne": 9893,
      "##ren": 9894,
      "His": 9895,
      "those": 9896,
      "best": 9897,
      "Par": 9898,
      "##mp": 9899,
      "Feb": 9900,
      "##ged": 9901,
      "##ract": 9902,
      "Europ": 9903,
      "po": 9904,
      "organ": 9905,
      "Febru": 9906,
      "February": 9907,
      "ele": 9908,
      "iss": 9909,
      "still": 9910,
      "top": 9911,
      "next": 9912,
      "species": 9913,
      "Christ": 9914,
      "sk": 9915,
      "##ences": 9916,
      "view": 9917,
      "There": 9918,
      "National": 9919,
      "##hor": 9920,
      "##aken": 9921,
      "##ances": 9922,
      "##akes": 9923,
      "##oci": 9924,
      "original": 9925,
      "ed": 9926,
      "Man": 9927,
      "##oyal": 9928,
      "Bar": 9929,
      "water": 9930,
      "join": 9931,
      "addition": 9932,
      "##ness": 9933,
      "infl": 9934,
      "list": 9935,
      "##sh": 9936,
      "##ature": 9937,
      "within": 9938,
      "period": 9939,
      "Am": 9940,
      "##rew": 9941,
      "members": 9942,
      "##yl": 9943,
      "##ented": 9944,
      "ref": 9945,
      "built": 9946,
      "French": 9947,
      "mark": 9948,
      "held": 9949,
      "deb": 9950,
      "exper": 9951,
      "##oon": 9952,
      "##ched": 9953,
      "although": 9954,
      "match": 9955,
      "late": 9956,
      "former": 9957,
      "##augh": 9958,
      "Char": 9959,
      "release": 9960,
      "great": 9961,
      "dest": 9962,
      "sold": 9963,
      "##ney": 9964,
      "2010": 9965,
      "##ech": 9966,
      "21": 9967,
      "##ared": 9968,
      "conf": 9969,
      "av": 9970,
      "video": 9971,
      "caus": 9972,
      "storm": 9973,
      "##ropical": 9974,
      "##ipp": 9975,
      "##ights": 9976,
      "##omb": 9977,
      "West": 9978,
      "##af": 9979,
      "tri": 9980,
      "init": 9981,
      "role": 9982,
      "##eal": 9983,
      "William": 9984,
      "came": 9985,
      "##hel": 9986,
      "estab": 9987,
      "tw": 9988,
      "days": 9989,
      "mid": 9990,
      "##ulation": 9991,
      "Air": 9992,
      "##ple": 9993,
      "##uted": 9994,
      "##ham": 9995,
      "polit": 9996,
      "stand": 9997,
      "real": 9998,
      "Her": 9999,
      "##ead": 10000,
      "however": 10001,
      "##itary": 10002,
      "my": 10003,
      "Min": 10004,
      "2008": 10005,
      "##aster": 10006,
      "24": 10007,
      "prop": 10008,
      "##line": 10009,
      "##ices": 10010,
      "##ased": 10011,
      "wind": 10012,
      "2009": 10013,
      "few": 10014,
      "##atic": 10015,
      "town": 10016,
      "##ung": 10017,
      "Geor": 10018,
      "side": 10019,
      "##ball": 10020,
      "continued": 10021,
      "post": 10022,
      "equ": 10023,
      "often": 10024,
      "##eter": 10025,
      "Des": 10026,
      "Ear": 10027,
      "local": 10028,
      "tel": 10029,
      "2011": 10030,
      "repr": 10031,
      "##ator": 10032,
      "##ays": 10033,
      "among": 10034,
      "##ruction": 10035,
      "similar": 10036,
      "Mich": 10037,
      "sw": 10038,
      "No": 10039,
      "hum": 10040,
      "claim": 10041,
      "##omen": 10042,
      "##urs": 10043,
      "##estern": 10044,
      "##pite": 10045,
      "##alk": 10046,
      "##elt": 10047,
      "##ying": 10048,
      "England": 10049,
      "##orts": 10050,
      "##ese": 10051,
      "##reet": 10052,
      "##read": 10053,
      "##gy": 10054,
      "##ology": 10055,
      "##ops": 10056,
      "further": 10057,
      "different": 10058,
      "22": 10059,
      "##ense": 10060,
      "beh": 10061,
      "Rec": 10062,
      "typ": 10063,
      "sent": 10064,
      "##ests": 10065,
      "level": 10066,
      "fre": 10067,
      "Dav": 10068,
      "##na": 10069,
      "considered": 10070,
      "take": 10071,
      "law": 10072,
      "tot": 10073,
      "One": 10074,
      "2007": 10075,
      "career": 10076,
      "week": 10077,
      "##app": 10078,
      "production": 10079,
      "##lex": 10080,
      "Ex": 10081,
      "##press": 10082,
      "##ards": 10083,
      "##ler": 10084,
      "cover": 10085,
      "half": 10086,
      "Park": 10087,
      "ant": 10088,
      "##ampions": 10089,
      "City": 10090,
      "Ang": 10091,
      "having": 10092,
      "Acc": 10093,
      "##con": 10094,
      "##ms": 10095,
      "##ea": 10096,
      "##ves": 10097,
      "English": 10098,
      "east": 10099,
      "road": 10100,
      "mag": 10101,
      "moved": 10102,
      "cor": 10103,
      "west": 10104,
      "##ittle": 10105,
      "enter": 10106,
      "every": 10107,
      "without": 10108,
      "Although": 10109,
      "##rodu": 10110,
      "Cal": 10111,
      "Cent": 10112,
      "position": 10113,
      "2012": 10114,
      "##ones": 10115,
      "plan": 10116,
      "player": 10117,
      "history": 10118,
      "become": 10119,
      "23": 10120,
      "version": 10121,
      "Count": 10122,
      "see": 10123,
      "##ford": 10124,
      "##ondon": 10125,
      "elect": 10126,
      "influ": 10127,
      "##ize": 10128,
      "Batt": 10129,
      "star": 10130,
      "London": 10131,
      "Su": 10132,
      "house": 10133,
      "commun": 10134,
      "sound": 10135,
      "##yle": 10136,
      "##atter": 10137,
      "##ck": 10138,
      "invol": 10139,
      "strong": 10140,
      "sugg": 10141,
      "cast": 10142,
      "club": 10143,
      "tem": 10144,
      "##self": 10145,
      "Sw": 10146,
      "##eder": 10147,
      "far": 10148,
      "attempt": 10149,
      "##uck": 10150,
      "written": 10151,
      "With": 10152,
      "190": 10153,
      "You": 10154,
      "stat": 10155,
      "##etter": 10156,
      "less": 10157,
      "River": 10158,
      "announ": 10159,
      "##me": 10160,
      "##ai": 10161,
      "##iqu": 10162,
      "foot": 10163,
      "##ington": 10164,
      "##irc": 10165,
      "order": 10166,
      "##ript": 10167,
      "##isc": 10168,
      "##ising": 10169,
      "refer": 10170,
      "##ape": 10171,
      "##iety": 10172,
      "##ald": 10173,
      "##craft": 10174,
      "aff": 10175,
      "##int": 10176,
      "Canad": 10177,
      "prof": 10178,
      "##sequ": 10179,
      "point": 10180,
      "given": 10181,
      "produc": 10182,
      "rad": 10183,
      "low": 10184,
      "Gener": 10185,
      "##aul": 10186,
      "trad": 10187,
      "hig": 10188,
      "University": 10189,
      "want": 10190,
      "gave": 10191,
      "Pol": 10192,
      "pat": 10193,
      "##iend": 10194,
      "never": 10195,
      "While": 10196,
      "##ailed": 10197,
      "chang": 10198,
      "returned": 10199,
      "##ories": 10200,
      "##ration": 10201,
      "comb": 10202,
      "Dr": 10203,
      "##aly": 10204,
      "repres": 10205,
      "soc": 10206,
      "total": 10207,
      "vict": 10208,
      "##ett": 10209,
      "##ches": 10210,
      "##urric": 10211,
      "##ots": 10212,
      "High": 10213,
      "##roy": 10214,
      "fact": 10215,
      "##amb": 10216,
      "good": 10217,
      "##aun": 10218,
      "En": 10219,
      "capt": 10220,
      "control": 10221,
      "fire": 10222,
      "country": 10223,
      "company": 10224,
      "went": 10225,
      "friend": 10226,
      "##ours": 10227,
      "import": 10228,
      "##ges": 10229,
      "published": 10230,
      "Ab": 10231,
      "##evision": 10232,
      "produced": 10233,
      "Sm": 10234,
      "##ably": 10235,
      "##aying": 10236,
      "find": 10237,
      "reported": 10238,
      "origin": 10239,
      "young": 10240,
      "sol": 10241,
      "2006": 10242,
      "lost": 10243,
      "##aign": 10244,
      "stated": 10245,
      "common": 10246,
      "program": 10247,
      "ord": 10248,
      "Co": 10249,
      "particular": 10250,
      "Sy": 10251,
      "##aur": 10252,
      "##echn": 10253,
      "##ency": 10254,
      "adm": 10255,
      "include": 10256,
      "According": 10257,
      "##oom": 10258,
      "##aised": 10259,
      "##eth": 10260,
      "compet": 10261,
      "##hing": 10262,
      "forces": 10263,
      "recorded": 10264,
      "##iter": 10265,
      "##ief": 10266,
      "building": 10267,
      "27": 10268,
      "##ama": 10269,
      "press": 10270,
      "##vers": 10271,
      "bus": 10272,
      "need": 10273,
      "nort": 10274,
      "28": 10275,
      "ships": 10276,
      "##raw": 10277,
      "##cess": 10278,
      "50": 10279,
      "should": 10280,
      "using": 10281,
      "##used": 10282,
      "##iment": 10283,
      "eight": 10284,
      "performance": 10285,
      "gl": 10286,
      "##iness": 10287,
      "##ploy": 10288,
      "service": 10289,
      "##ength": 10290,
      "These": 10291,
      "popular": 10292,
      "##osp": 10293,
      "times": 10294,
      "father": 10295,
      "##ef": 10296,
      "making": 10297,
      "##ned": 10298,
      "aircraft": 10299,
      "ten": 10300,
      "military": 10301,
      "Australia": 10302,
      "himself": 10303,
      "2013": 10304,
      "##atch": 10305,
      "fun": 10306,
      "author": 10307,
      "##lear": 10308,
      "##ampionship": 10309,
      "Sec": 10310,
      "right": 10311,
      "##earch": 10312,
      "##let": 10313,
      "anim": 10314,
      "Ass": 10315,
      "##ae": 10316,
      "Jack": 10317,
      "lim": 10318,
      "songs": 10319,
      "somet": 10320,
      "##outher": 10321,
      "read": 10322,
      "##ither": 10323,
      "##ensive": 10324,
      "surv": 10325,
      "Pres": 10326,
      "critic": 10327,
      "26": 10328,
      "development": 10329,
      "##ords": 10330,
      "General": 10331,
      "Af": 10332,
      "##ional": 10333,
      "how": 10334,
      "##quad": 10335,
      "Cor": 10336,
      "40": 10337,
      "inf": 10338,
      "##itive": 10339,
      "State": 10340,
      "cross": 10341,
      "##outhern": 10342,
      "James": 10343,
      "189": 10344,
      "ground": 10345,
      "##acy": 10346,
      "ft": 10347,
      "light": 10348,
      "ins": 10349,
      "remained": 10350,
      "##astern": 10351,
      "Gl": 10352,
      "Army": 10353,
      "national": 10354,
      "characters": 10355,
      "suff": 10356,
      "months": 10357,
      "present": 10358,
      "get": 10359,
      "##oo": 10360,
      "gen": 10361,
      "ne": 10362,
      "died": 10363,
      "ter": 10364,
      "##ries": 10365,
      "bar": 10366,
      "##ublic": 10367,
      "developed": 10368,
      "title": 10369,
      "sum": 10370,
      "##ument": 10371,
      "force": 10372,
      "##ille": 10373,
      "##ream": 10374,
      "##fic": 10375,
      "campaign": 10376,
      "##ering": 10377,
      "League": 10378,
      "##urricane": 10379,
      "##utes": 10380,
      "##ael": 10381,
      "##alt": 10382,
      "field": 10383,
      "children": 10384,
      "introdu": 10385,
      "trav": 10386,
      "tour": 10387,
      "##itted": 10388,
      "##isted": 10389,
      "signific": 10390,
      "##lands": 10391,
      "across": 10392,
      "##field": 10393,
      "son": 10394,
      "##eep": 10395,
      "##hern": 10396,
      "Mor": 10397,
      "away": 10398,
      "Division": 10399,
      "Reg": 10400,
      "##yn": 10401,
      "relations": 10402,
      "histor": 10403,
      "official": 10404,
      "##dom": 10405,
      "fav": 10406,
      "We": 10407,
      "felt": 10408,
      "Comp": 10409,
      "effect": 10410,
      "America": 10411,
      "##lege": 10412,
      "##ope": 10413,
      "##rick": 10414,
      "fac": 10415,
      "noted": 10416,
      "Sim": 10417,
      "reached": 10418,
      "Russ": 10419,
      "announced": 10420,
      "intern": 10421,
      "promot": 10422,
      "Mad": 10423,
      "Japanese": 10424,
      "County": 10425,
      "che": 10426,
      "destroy": 10427,
      "battle": 10428,
      "areas": 10429,
      "created": 10430,
      "Road": 10431,
      "arm": 10432,
      "##ows": 10433,
      "television": 10434,
      "2005": 10435,
      "sit": 10436,
      "29": 10437,
      "station": 10438,
      "successful": 10439,
      "Em": 10440,
      "rock": 10441,
      "##imately": 10442,
      "val": 10443,
      "super": 10444,
      "Street": 10445,
      "various": 10446,
      "political": 10447,
      "seen": 10448,
      "followed": 10449,
      "##ements": 10450,
      "too": 10451,
      "Mon": 10452,
      "##iber": 10453,
      "##ization": 10454,
      "##iting": 10455,
      "enc": 10456,
      "##duc": 10457,
      "##most": 10458,
      "front": 10459,
      "rank": 10460,
      "aver": 10461,
      "East": 10462,
      "served": 10463,
      "performed": 10464,
      "Rober": 10465,
      "cult": 10466,
      "players": 10467,
      "##reg": 10468,
      "2014": 10469,
      "cond": 10470,
      "prim": 10471,
      "full": 10472,
      "George": 10473,
      "##ination": 10474,
      "decl": 10475,
      "begin": 10476,
      "black": 10477,
      "##elling": 10478,
      "put": 10479,
      "Phil": 10480,
      "earl": 10481,
      "Per": 10482,
      "obs": 10483,
      "Ser": 10484,
      "cy": 10485,
      "bo": 10486,
      "##olution": 10487,
      "cost": 10488,
      "##abor": 10489,
      "div": 10490,
      "##idence": 10491,
      "style": 10492,
      "non": 10493,
      "look": 10494,
      "Hen": 10495,
      "circ": 10496,
      "vol": 10497,
      "killed": 10498,
      "seven": 10499,
      "aud": 10500,
      "sel": 10501,
      "##ana": 10502,
      "night": 10503,
      "tropical": 10504,
      "help": 10505,
      "##urg": 10506,
      "##lished": 10507,
      "coun": 10508,
      "##play": 10509,
      "throughout": 10510,
      "Bill": 10511,
      "taken": 10512,
      "able": 10513,
      "##enth": 10514,
      "agre": 10515,
      "##ecut": 10516,
      "little": 10517,
      "significant": 10518,
      "becom": 10519,
      "age": 10520,
      "##ius": 10521,
      "fem": 10522,
      "meet": 10523,
      "ident": 10524,
      "Sch": 10525,
      "##ways": 10526,
      "Thom": 10527,
      "Australian": 10528,
      "techn": 10529,
      "special": 10530,
      "##irl": 10531,
      "struct": 10532,
      "##oice": 10533,
      "writing": 10534,
      "##aval": 10535,
      "cop": 10536,
      "##leet": 10537,
      "mm": 10538,
      "thought": 10539,
      "broad": 10540,
      "established": 10541,
      "##enced": 10542,
      "body": 10543,
      "appeared": 10544,
      "David": 10545,
      "process": 10546,
      "entire": 10547,
      "does": 10548,
      "##rict": 10549,
      "##epend": 10550,
      "miles": 10551,
      "ball": 10552,
      "Rich": 10553,
      "points": 10554,
      "##ought": 10555,
      "tro": 10556,
      "award": 10557,
      "route": 10558,
      "##odes": 10559,
      "impro": 10560,
      "member": 10561,
      "##ask": 10562,
      "Med": 10563,
      "##ivil": 10564,
      "##umb": 10565,
      "range": 10566,
      "activ": 10567,
      "##iers": 10568,
      "women": 10569,
      "started": 10570,
      "caused": 10571,
      "Qu": 10572,
      "decided": 10573,
      "##hys": 10574,
      "Afric": 10575,
      "features": 10576,
      "##aves": 10577,
      "pain": 10578,
      "general": 10579,
      "My": 10580,
      "##idd": 10581,
      "##ming": 10582,
      "##day": 10583,
      "##ators": 10584,
      "##ament": 10585,
      "eventually": 10586,
      "Part": 10587,
      "##iec": 10588,
      "##cil": 10589,
      "##eated": 10590,
      "##ground": 10591,
      "##cent": 10592,
      "##conom": 10593,
      "Royal": 10594,
      "arch": 10595,
      "##ogn": 10596,
      "race": 10597,
      "##itar": 10598,
      "##emy": 10599,
      "coast": 10600,
      "To": 10601,
      "##here": 10602,
      "Act": 10603,
      "Hist": 10604,
      "feet": 10605,
      "grow": 10606,
      "ve": 10607,
      "manag": 10608,
      "##board": 10609,
      "##bert": 10610,
      "added": 10611,
      "##arr": 10612,
      "31": 10613,
      "tre": 10614,
      "cut": 10615,
      "##men": 10616,
      "toget": 10617,
      "together": 10618,
      "##alth": 10619,
      "188": 10620,
      "hold": 10621,
      "House": 10622,
      "formed": 10623,
      "##ivid": 10624,
      "located": 10625,
      "once": 10626,
      "white": 10627,
      "stri": 10628,
      "nov": 10629,
      "##ample": 10630,
      "##reek": 10631,
      "arg": 10632,
      "modern": 10633,
      "conn": 10634,
      "fight": 10635,
      "##ades": 10636,
      "curr": 10637,
      "Black": 10638,
      "##ush": 10639,
      "instead": 10640,
      "##head": 10641,
      "spe": 10642,
      "##off": 10643,
      "round": 10644,
      "##rought": 10645,
      "##aces": 10646,
      "cert": 10647,
      "esc": 10648,
      "Hol": 10649,
      "##omm": 10650,
      "Rep": 10651,
      "Intern": 10652,
      "mix": 10653,
      "important": 10654,
      "##hic": 10655,
      "crew": 10656,
      "pri": 10657,
      "saw": 10658,
      "##uk": 10659,
      "##less": 10660,
      "action": 10661,
      "##ani": 10662,
      "##eam": 10663,
      "completed": 10664,
      "Indian": 10665,
      "playing": 10666,
      "Cr": 10667,
      "Other": 10668,
      "##ara": 10669,
      "##ells": 10670,
      "##pression": 10671,
      "##ata": 10672,
      "2004": 10673,
      "hon": 10674,
      "inj": 10675,
      "##ring": 10676,
      "population": 10677,
      "insp": 10678,
      "mater": 10679,
      "mot": 10680,
      "Michael": 10681,
      "stage": 10682,
      "voc": 10683,
      "guns": 10684,
      "rather": 10685,
      "ask": 10686,
      "behind": 10687,
      "##aps": 10688,
      "opened": 10689,
      "cas": 10690,
      "others": 10691,
      "186": 10692,
      "fall": 10693,
      "##ceed": 10694,
      "##ger": 10695,
      "brother": 10696,
      "##igned": 10697,
      "comment": 10698,
      "lik": 10699,
      "born": 10700,
      "##wood": 10701,
      "##stit": 10702,
      "site": 10703,
      "##lin": 10704,
      "2015": 10705,
      "fif": 10706,
      "##rated": 10707,
      "works": 10708,
      "heavy": 10709,
      "bomb": 10710,
      "loss": 10711,
      "live": 10712,
      "France": 10713,
      "worked": 10714,
      "##ficult": 10715,
      "hit": 10716,
      "miss": 10717,
      "School": 10718,
      "pred": 10719,
      "discover": 10720,
      "subsequ": 10721,
      "qual": 10722,
      "##ster": 10723,
      "lack": 10724,
      "##medi": 10725,
      "close": 10726,
      "proble": 10727,
      "party": 10728,
      "difficult": 10729,
      "construction": 10730,
      "##iol": 10731,
      "Some": 10732,
      "Nor": 10733,
      "Wash": 10734,
      "##ending": 10735,
      "##anch": 10736,
      "host": 10737,
      "##istic": 10738,
      "weeks": 10739,
      "relationship": 10740,
      "project": 10741,
      "originally": 10742,
      "reb": 10743,
      "separ": 10744,
      "associ": 10745,
      "Fir": 10746,
      "San": 10747,
      "upon": 10748,
      "##uel": 10749,
      "##ky": 10750,
      "##ica": 10751,
      "pract": 10752,
      "appoin": 10753,
      "leading": 10754,
      "peak": 10755,
      "vill": 10756,
      "Henry": 10757,
      "almost": 10758,
      "Port": 10759,
      "damage": 10760,
      "mer": 10761,
      "##duct": 10762,
      "Robert": 10763,
      "Europe": 10764,
      "fourth": 10765,
      "chart": 10766,
      "sett": 10767,
      "scored": 10768,
      "##osition": 10769,
      "inform": 10770,
      "##yr": 10771,
      "provided": 10772,
      "##ividual": 10773,
      "case": 10774,
      "reve": 10775,
      "Best": 10776,
      "mi": 10777,
      "clos": 10778,
      "500": 10779,
      "engine": 10780,
      "interv": 10781,
      "invest": 10782,
      "Vir": 10783,
      "Music": 10784,
      "creat": 10785,
      "dev": 10786,
      "Paul": 10787,
      "scene": 10788,
      "Red": 10789,
      "##oring": 10790,
      "human": 10791,
      "##ological": 10792,
      "##angu": 10793,
      "brought": 10794,
      "##ino": 10795,
      "Battle": 10796,
      "##aut": 10797,
      "free": 10798,
      "Ag": 10799,
      "187": 10800,
      "fell": 10801,
      "featured": 10802,
      "least": 10803,
      "##ential": 10804,
      "king": 10805,
      "vot": 10806,
      "mother": 10807,
      "##ula": 10808,
[...]
